{
  "version": "1.0",
  "truncation": null,
  "padding": null,
  "added_tokens": [
    {
      "id": 0,
      "content": "<pad>",
      "single_word": false,
      "lstrip": false,
      "rstrip": false,
      "normalized": false,
      "special": true
    },
    {
      "id": 1,
      "content": "<s>",
      "single_word": false,
      "lstrip": false,
      "rstrip": false,
      "normalized": false,
      "special": true
    },
    {
      "id": 2,
      "content": "</s>",
      "single_word": false,
      "lstrip": false,
      "rstrip": false,
      "normalized": false,
      "special": true
    },
    {
      "id": 3,
      "content": "<unk>",
      "single_word": false,
      "lstrip": false,
      "rstrip": false,
      "normalized": false,
      "special": true
    },
    {
      "id": 4,
      "content": "<legal>",
      "single_word": false,
      "lstrip": false,
      "rstrip": false,
      "normalized": false,
      "special": true
    }
  ],
  "normalizer": {
    "type": "NFC"
  },
  "pre_tokenizer": {
    "type": "ByteLevel",
    "add_prefix_space": false,
    "trim_offsets": true,
    "use_regex": true
  },
  "post_processor": null,
  "decoder": {
    "type": "ByteLevel",
    "add_prefix_space": true,
    "trim_offsets": true,
    "use_regex": true
  },
  "model": {
    "type": "BPE",
    "dropout": null,
    "unk_token": "<unk>",
    "continuing_subword_prefix": null,
    "end_of_word_suffix": null,
    "fuse_unk": false,
    "byte_fallback": false,
    "ignore_merges": false,
    "vocab": {
      "<pad>": 0,
      "<s>": 1,
      "</s>": 2,
      "<unk>": 3,
      "<legal>": 4,
      "!": 5,
      "\"": 6,
      "#": 7,
      "$": 8,
      "%": 9,
      "&": 10,
      "'": 11,
      "(": 12,
      ")": 13,
      "*": 14,
      "+": 15,
      ",": 16,
      "-": 17,
      ".": 18,
      "/": 19,
      "0": 20,
      "1": 21,
      "2": 22,
      "3": 23,
      "4": 24,
      "5": 25,
      "6": 26,
      "7": 27,
      "8": 28,
      "9": 29,
      ":": 30,
      ";": 31,
      "<": 32,
      "=": 33,
      ">": 34,
      "?": 35,
      "@": 36,
      "A": 37,
      "B": 38,
      "C": 39,
      "D": 40,
      "E": 41,
      "F": 42,
      "G": 43,
      "H": 44,
      "I": 45,
      "J": 46,
      "K": 47,
      "L": 48,
      "M": 49,
      "N": 50,
      "O": 51,
      "P": 52,
      "Q": 53,
      "R": 54,
      "S": 55,
      "T": 56,
      "U": 57,
      "V": 58,
      "W": 59,
      "X": 60,
      "Y": 61,
      "Z": 62,
      "[": 63,
      "\\": 64,
      "]": 65,
      "^": 66,
      "_": 67,
      "`": 68,
      "a": 69,
      "b": 70,
      "c": 71,
      "d": 72,
      "e": 73,
      "f": 74,
      "g": 75,
      "h": 76,
      "i": 77,
      "j": 78,
      "k": 79,
      "l": 80,
      "m": 81,
      "n": 82,
      "o": 83,
      "p": 84,
      "q": 85,
      "r": 86,
      "s": 87,
      "t": 88,
      "u": 89,
      "v": 90,
      "w": 91,
      "x": 92,
      "y": 93,
      "z": 94,
      "{": 95,
      "|": 96,
      "}": 97,
      "~": 98,
      "¡": 99,
      "¢": 100,
      "£": 101,
      "¤": 102,
      "¥": 103,
      "¦": 104,
      "§": 105,
      "¨": 106,
      "©": 107,
      "ª": 108,
      "«": 109,
      "¬": 110,
      "®": 111,
      "¯": 112,
      "°": 113,
      "±": 114,
      "²": 115,
      "³": 116,
      "´": 117,
      "µ": 118,
      "¶": 119,
      "·": 120,
      "¸": 121,
      "¹": 122,
      "º": 123,
      "»": 124,
      "¼": 125,
      "½": 126,
      "¾": 127,
      "¿": 128,
      "À": 129,
      "Á": 130,
      "Â": 131,
      "Ã": 132,
      "Ä": 133,
      "Å": 134,
      "Æ": 135,
      "Ç": 136,
      "È": 137,
      "É": 138,
      "Ê": 139,
      "Ë": 140,
      "Ì": 141,
      "Í": 142,
      "Î": 143,
      "Ï": 144,
      "Ð": 145,
      "Ñ": 146,
      "Ò": 147,
      "Ó": 148,
      "Ô": 149,
      "Õ": 150,
      "Ö": 151,
      "×": 152,
      "Ø": 153,
      "Ù": 154,
      "Ú": 155,
      "Û": 156,
      "Ü": 157,
      "Ý": 158,
      "Þ": 159,
      "ß": 160,
      "à": 161,
      "á": 162,
      "â": 163,
      "ã": 164,
      "ä": 165,
      "å": 166,
      "æ": 167,
      "ç": 168,
      "è": 169,
      "é": 170,
      "ê": 171,
      "ë": 172,
      "ì": 173,
      "í": 174,
      "î": 175,
      "ï": 176,
      "ð": 177,
      "ñ": 178,
      "ò": 179,
      "ó": 180,
      "ô": 181,
      "õ": 182,
      "ö": 183,
      "÷": 184,
      "ø": 185,
      "ù": 186,
      "ú": 187,
      "û": 188,
      "ü": 189,
      "ý": 190,
      "þ": 191,
      "ÿ": 192,
      "Ā": 193,
      "ā": 194,
      "Ă": 195,
      "ă": 196,
      "Ą": 197,
      "ą": 198,
      "Ć": 199,
      "ć": 200,
      "Ĉ": 201,
      "ĉ": 202,
      "Ċ": 203,
      "ċ": 204,
      "Č": 205,
      "č": 206,
      "Ď": 207,
      "ď": 208,
      "Đ": 209,
      "đ": 210,
      "Ē": 211,
      "ē": 212,
      "Ĕ": 213,
      "ĕ": 214,
      "Ė": 215,
      "ė": 216,
      "Ę": 217,
      "ę": 218,
      "Ě": 219,
      "ě": 220,
      "Ĝ": 221,
      "ĝ": 222,
      "Ğ": 223,
      "ğ": 224,
      "Ġ": 225,
      "ġ": 226,
      "Ģ": 227,
      "ģ": 228,
      "Ĥ": 229,
      "ĥ": 230,
      "Ħ": 231,
      "ħ": 232,
      "Ĩ": 233,
      "ĩ": 234,
      "Ī": 235,
      "ī": 236,
      "Ĭ": 237,
      "ĭ": 238,
      "Į": 239,
      "į": 240,
      "İ": 241,
      "ı": 242,
      "Ĳ": 243,
      "ĳ": 244,
      "Ĵ": 245,
      "ĵ": 246,
      "Ķ": 247,
      "ķ": 248,
      "ĸ": 249,
      "Ĺ": 250,
      "ĺ": 251,
      "Ļ": 252,
      "ļ": 253,
      "Ľ": 254,
      "ľ": 255,
      "Ŀ": 256,
      "ŀ": 257,
      "Ł": 258,
      "ł": 259,
      "Ń": 260,
      "th": 261,
      "Ġa": 262,
      "Ġth": 263,
      "in": 264,
      "on": 265,
      "Ġthe": 266,
      "re": 267,
      "er": 268,
      "ti": 269,
      "Ġs": 270,
      "Ġo": 271,
      "en": 272,
      "ma": 273,
      "Ġc": 274,
      "Ġf": 275,
      "ed": 276,
      "Ġw": 277,
      "Ġp": 278,
      "is": 279,
      "Ġt": 280,
      "or": 281,
      "al": 282,
      "es": 283,
      "Ġin": 284,
      "Ġof": 285,
      "Ġ,": 286,
      "nd": 287,
      "Ġb": 288,
      "at": 289,
      "Ġd": 290,
      "tion": 291,
      "Ġ.": 292,
      "ar": 293,
      "Ġ@": 294,
      "math": 295,
      "xmath": 296,
      "an": 297,
      "ing": 298,
      "ĠĊ": 299,
      "it": 300,
      "Ġand": 301,
      "ro": 302,
      "Ġto": 303,
      "Ġh": 304,
      "ic": 305,
      "le": 306,
      "as": 307,
      "Ġe": 308,
      "ĠĠ": 309,
      "Ġre": 310,
      "Ġm": 311,
      "ent": 312,
      "Ġn": 313,
      "ou": 314,
      "Ġ(": 315,
      "el": 316,
      "ec": 317,
      "..": 318,
      "Ġl": 319,
      "ation": 320,
      "Ġis": 321,
      "Ġfor": 322,
      "ac": 323,
      "om": 324,
      "il": 325,
      "st": 326,
      "Ġg": 327,
      "ve": 328,
      "ig": 329,
      "Ġ1": 330,
      "ol": 331,
      "Ġ)": 332,
      "id": 333,
      "et": 334,
      "Ġ-": 335,
      "ly": 336,
      "us": 337,
      "Ġthat": 338,
      "ith": 339,
      "ce": 340,
      "Ġcon": 341,
      "Ġst": 342,
      "ur": 343,
      "ere": 344,
      "Ġon": 345,
      "ul": 346,
      "Ġbe": 347,
      "ow": 348,
      "ra": 349,
      "im": 350,
      "Ġwith": 351,
      "Ġ2": 352,
      "Ġwh": 353,
      "ot": 354,
      "Ġma": 355,
      "Ġas": 356,
      "Ġv": 357,
      "ĠC": 358,
      "Ġpro": 359,
      "os": 360,
      "Ġan": 361,
      "ment": 362,
      "ter": 363,
      "Ġal": 364,
      "qu": 365,
      "ĠS": 366,
      "....": 367,
      "am": 368,
      "ri": 369,
      "Ġby": 370,
      "ff": 371,
      "ĠA": 372,
      "ir": 373,
      "ts": 374,
      "Ġex": 375,
      "res": 376,
      "uc": 377,
      "un": 378,
      "ver": 379,
      "ĠĠĠĠ": 380,
      "Ġwe": 381,
      "um": 382,
      "ut": 383,
      "ge": 384,
      "Ġat": 385,
      "ity": 386,
      "od": 387,
      "ate": 388,
      "tic": 389,
      "00": 390,
      "ion": 391,
      "pp": 392,
      "âĢ": 393,
      "Ġor": 394,
      "ĠT": 395,
      "Ġare": 396,
      "ĠD": 397,
      "ab": 398,
      "Ġ]": 399,
      "ĠP": 400,
      "ain": 401,
      "Ġcom": 402,
      "ĠM": 403,
      "em": 404,
      "Ġha": 405,
      "Ġthis": 406,
      "Ġsh": 407,
      "Ġ&": 408,
      "ers": 409,
      "oc": 410,
      "if": 411,
      "end": 412,
      "Ġit": 413,
      "Ġde": 414,
      "ure": 415,
      "Ġr": 416,
      "ud": 417,
      "ted": 418,
      "rom": 419,
      "igh": 420,
      "pl": 421,
      "ay": 422,
      "Ġdis": 423,
      "ĠI": 424,
      "Ġ[": 425,
      "Ġres": 426,
      "Ġfrom": 427,
      "Ġsu": 428,
      "ite": 429,
      "ore": 430,
      "ant": 431,
      "Ġnot": 432,
      "ess": 433,
      "Ġ_": 434,
      "Ġwas": 435,
      "ch": 436,
      "Ġch": 437,
      "per": 438,
      "se": 439,
      "Ġsp": 440,
      "ĠF": 441,
      "ated": 442,
      "01": 443,
      "iv": 444,
      "Ġse": 445,
      "ther": 446,
      "Ġac": 447,
      "nt": 448,
      "Ġ3": 449,
      "Ġle": 450,
      "ad": 451,
      "Ġ0": 452,
      "ase": 453,
      "Ġdi": 454,
      "Ġpar": 455,
      "ich": 456,
      "our": 457,
      "ati": 458,
      "he": 459,
      "op": 460,
      "ĠR": 461,
      "........": 462,
      "ations": 463,
      "Ġus": 464,
      "ill": 465,
      "Ġne": 466,
      "ect": 467,
      "ĠĠĠ": 468,
      "ĠB": 469,
      "Ġcomp": 470,
      "Ġhave": 471,
      "Ġk": 472,
      "ens": 473,
      "Ġu": 474,
      "ld": 475,
      "tions": 476,
      "Ġcl": 477,
      "ical": 478,
      "Ġad": 479,
      "ĠE": 480,
      "ine": 481,
      "Ġwhich": 482,
      "Ġ\\": 483,
      "Ġapp": 484,
      "Ġ:": 485,
      "ell": 486,
      "iz": 487,
      "Ġcan": 488,
      "xc": 489,
      "ib": 490,
      "Ġ4": 491,
      "and": 492,
      "ies": 493,
      "ist": 494,
      "Ġcont": 495,
      "xcite": 496,
      "Ġint": 497,
      "Ġj": 498,
      "Ġab": 499,
      "Ġen": 500,
      "Ġhe": 501,
      "ĠO": 502,
      "Ġme": 503,
      "ĠN": 504,
      "rou": 505,
      "di": 506,
      "Ġob": 507,
      "Ġun": 508,
      "iti": 509,
      "ran": 510,
      "ĠJ": 511,
      "Ġph": 512,
      "Ġpl": 513,
      "Ġinc": 514,
      "ight": 515,
      "ary": 516,
      "ĠH": 517,
      "ĠL": 518,
      "Ġhas": 519,
      "tim": 520,
      "able": 521,
      "ue": 522,
      "ence": 523,
      "Ġy": 524,
      "all": 525,
      "ph": 526,
      "Ġ5": 527,
      "ort": 528,
      "Ġ*": 529,
      "ard": 530,
      "ct": 531,
      "est": 532,
      "ag": 533,
      "Ġall": 534,
      "11": 535,
      "ous": 536,
      "Ġim": 537,
      "og": 538,
      "Ġwere": 539,
      "ign": 540,
      "ould": 541,
      "Ġra": 542,
      "red": 543,
      "20": 544,
      "age": 545,
      "ep": 546,
      "ak": 547,
      "ally": 548,
      "vel": 549,
      "Ġper": 550,
      "Ġmod": 551,
      "ach": 552,
      "ys": 553,
      "ĠW": 554,
      "act": 555,
      "Ġqu": 556,
      "ust": 557,
      "10": 558,
      "ber": 559,
      "âĢĻ": 560,
      "ĠU": 561,
      "ond": 562,
      "for": 563,
      "ss": 564,
      "mal": 565,
      "Ġ19": 566,
      "ie": 567,
      "ents": 568,
      "ress": 569,
      "gh": 570,
      "erv": 571,
      "ear": 572,
      "Ġind": 573,
      "Ġsy": 574,
      "ance": 575,
      "ĠThe": 576,
      "Ġcons": 577,
      "Ġfig": 578,
      "Ġmo": 579,
      "Ġev": 580,
      "erm": 581,
      "ates": 582,
      "ong": 583,
      "ction": 584,
      "12": 585,
      "te": 586,
      "ree": 587,
      "ĠĠĠĠĠĠĠĠ": 588,
      "Ġsc": 589,
      "uch": 590,
      "ric": 591,
      "Ġone": 592,
      "oll": 593,
      "ution": 594,
      "Ġinter": 595,
      "so": 596,
      "ial": 597,
      "ome": 598,
      "Ġi": 599,
      "Ġsec": 600,
      "Ġtim": 601,
      "rib": 602,
      "19": 603,
      "Ġtw": 604,
      "Ġass": 605,
      "ose": 606,
      "ide": 607,
      "Ġshow": 608,
      "ap": 609,
      "Ġthere": 610,
      "ry": 611,
      "13": 612,
      "Ġrel": 613,
      "ace": 614,
      "Ġ6": 615,
      "ack": 616,
      "der": 617,
      "Ġrep": 618,
      "ĠG": 619,
      "'s": 620,
      "Ġ+": 621,
      "Ġno": 622,
      "Ġdet": 623,
      "Ġdiff": 624,
      "ass": 625,
      "Ġsub": 626,
      "Ġco": 627,
      "Ġ200": 628,
      "Ġalso": 629,
      "ered": 630,
      "Ġwill": 631,
      "Ġcor": 632,
      "Ġpre": 633,
      "Ġfi": 634,
      "duc": 635,
      "ons": 636,
      "Ġwhere": 637,
      "15": 638,
      "14": 639,
      "Ġar": 640,
      "Ġtwo": 641,
      "Ġtheir": 642,
      "Ġag": 643,
      "ast": 644,
      "ne": 645,
      "ple": 646,
      "enti": 647,
      "ĠâĢ": 648,
      "ef": 649,
      "are": 650,
      "aus": 651,
      "Ġbeen": 652,
      "rans": 653,
      "tive": 654,
      "Ġexp": 655,
      "Ġreg": 656,
      "................": 657,
      "ors": 658,
      "Ġrec": 659,
      "Ġ;": 660,
      "Ġthese": 661,
      "Ġresul": 662,
      "eld": 663,
      "we": 664,
      "tain": 665,
      "av": 666,
      "ail": 667,
      "ip": 668,
      "ound": 669,
      "Ġdef": 670,
      "erg": 671,
      "17": 672,
      "ia": 673,
      "ied": 674,
      "ely": 675,
      "Ġfin": 676,
      "Ġacc": 677,
      "Ġother": 678,
      "Ġsim": 679,
      "16": 680,
      "Ġ7": 681,
      "Ġeff": 682,
      "Ġpo": 683,
      "Ġif": 684,
      "Ġund": 685,
      "Ġbet": 686,
      "ord": 687,
      "ular": 688,
      "Ġthan": 689,
      "Ġ}": 690,
      "Ġtrans": 691,
      "rac": 692,
      "Ġmodel": 693,
      "Ġsuch": 694,
      "ĠSt": 695,
      "ork": 696,
      "Ġbut": 697,
      "out": 698,
      "Ġ'": 699,
      "Ġdo": 700,
      "Ġtime": 701,
      "ments": 702,
      "Ġmore": 703,
      "Ġem": 704,
      "lud": 705,
      "Ġequ": 706,
      "Ġstud": 707,
      "tiff": 708,
      "18": 709,
      "Ġdist": 710,
      "Ġgen": 711,
      "aintiff": 712,
      "Ġ201": 713,
      "ual": 714,
      "ourt": 715,
      "man": 716,
      "resent": 717,
      "Ġval": 718,
      "Ġany": 719,
      "ory": 720,
      "Ġresp": 721,
      "ke": 722,
      "pt": 723,
      "enc": 724,
      "Ġ8": 725,
      "ice": 726,
      "Ġdec": 727,
      "Ġpos": 728,
      "ub": 729,
      "Ġprov": 730,
      "Ġnum": 731,
      "Ġits": 732,
      "Ġdiffere": 733,
      "ari": 734,
      "Ġ10": 735,
      "Ġfl": 736,
      "ility": 737,
      "Ġimp": 738,
      "__": 739,
      "Ġfun": 740,
      "iss": 741,
      "Ġour": 742,
      "Ġthey": 743,
      "Ġhigh": 744,
      "Ġdisc": 745,
      "Ġsam": 746,
      "Ġ9": 747,
      "ween": 748,
      "Ġunder": 749,
      "Ġsyst": 750,
      "ollow": 751,
      "fter": 752,
      "Ġbetween": 753,
      "Ġsa": 754,
      "ific": 755,
      "TI": 756,
      "201": 757,
      "Ġbo": 758,
      "Ġcase": 759,
      "Ġam": 760,
      "Ġcou": 761,
      "ĠIn": 762,
      "Ġfollow": 763,
      "int": 764,
      "Ġonly": 765,
      "Ġbec": 766,
      "Ġstr": 767,
      "ative": 768,
      "âĢĿ": 769,
      "Ġappro": 770,
      "Ġout": 771,
      "ile": 772,
      "Ġso": 773,
      "Ġdes": 774,
      "Ġover": 775,
      "ition": 776,
      "ive": 777,
      "Ġrequ": 778,
      "ves": 779,
      "eral": 780,
      "mation": 781,
      "25": 782,
      "Ġhis": 783,
      "Ġro": 784,
      "Ġsign": 785,
      "ang": 786,
      "ft": 787,
      "Ġsystem": 788,
      "Ġ\"": 789,
      "23": 790,
      "Ġwhen": 791,
      "one": 792,
      "art": 793,
      "Ġpol": 794,
      "irst": 795,
      "Ġele": 796,
      "ll": 797,
      "Ġmay": 798,
      "Ġobs": 799,
      "ions": 800,
      "aw": 801,
      "Ġwho": 802,
      "ĠÂ": 803,
      "ER": 804,
      "Ġoff": 805,
      "ian": 806,
      "ined": 807,
      "ause": 808,
      "Ġset": 809,
      "tit": 810,
      "Ġstate": 811,
      "{\\": 812,
      "Ġafter": 813,
      "ants": 814,
      "24": 815,
      "ON": 816,
      "Ġgo": 817,
      "Ġfe": 818,
      "tical": 819,
      "Ġpartic": 820,
      "fore": 821,
      "Ġhad": 822,
      "cess": 823,
      "Ġman": 824,
      "ating": 825,
      "ased": 826,
      "ities": 827,
      "Ġdep": 828,
      "Ġform": 829,
      "Ġthen": 830,
      "ting": 831,
      "ish": 832,
      "Ġhow": 833,
      "yp": 834,
      "ove": 835,
      "Ġsee": 836,
      "ĊĊ": 837,
      "Ġgiv": 838,
      "lic": 839,
      "ee": 840,
      "Ġeq": 841,
      "Ġenerg": 842,
      "Ġinclud": 843,
      "Ġdat": 844,
      "Ġup": 845,
      "ues": 846,
      "ĠâĢľ": 847,
      ").": 848,
      "Ġsur": 849,
      "Ġorder": 850,
      "Ġsol": 851,
      "Ġpa": 852,
      "22": 853,
      "Ġfirst": 854,
      "Ġgrou": 855,
      "ĠPl": 856,
      "OR": 857,
      "Ġwould": 858,
      "iled": 859,
      "ron": 860,
      "Ġnon": 861,
      "Ġobserv": 862,
      "200": 863,
      "ures": 864,
      "Ġsome": 865,
      "old": 866,
      "Ġeach": 867,
      "ram": 868,
      "Ġli": 869,
      "ces": 870,
      "Ġfact": 871,
      "Ġanal": 872,
      "ited": 873,
      "--": 874,
      "Ġext": 875,
      "dition": 876,
      "Ġusing": 877,
      "Ġet": 878,
      "Ġref": 879,
      "Ġfield": 880,
      "les": 881,
      "Ġlar": 882,
      "Ġmass": 883,
      "Ġ199": 884,
      "ible": 885,
      "Ġver": 886,
      "26": 887,
      "ases": 888,
      "uct": 889,
      "ection": 890,
      "}\\": 891,
      "ays": 892,
      "Ġfunction": 893,
      "ument": 894,
      "Ġprob": 895,
      "ps": 896,
      "Ġsaid": 897,
      "Ġdata": 898,
      "str": 899,
      "Ġinto": 900,
      "Ġlow": 901,
      "Ġconsid": 902,
      "Ġphys": 903,
      "Ġbl": 904,
      "reat": 905,
      "27": 906,
      "Ġpati": 907,
      "30": 908,
      "eg": 909,
      "ected": 910,
      "Ġterm": 911,
      "Ġinf": 912,
      "ĠK": 913,
      "Ġenergy": 914,
      "ever": 915,
      "Ġcur": 916,
      "28": 917,
      "ov": 918,
      "Ġmat": 919,
      "ature": 920,
      "ax": 921,
      "med": 922,
      "ise": 923,
      "aintiffs": 924,
      "its": 925,
      "olog": 926,
      "Ġop": 927,
      "ized": 928,
      "rough": 929,
      "Ġmeas": 930,
      "ĠTh": 931,
      "Ġnumber": 932,
      "ties": 933,
      "ex": 934,
      "Ġtak": 935,
      "Ġ/": 936,
      "Ġused": 937,
      "Ġcomm": 938,
      "Ġclass": 939,
      "ven": 940,
      "ough": 941,
      "ok": 942,
      "Ġconc": 943,
      "Ġobtain": 944,
      "Ġrequi": 945,
      "ges": 946,
      "cc": 947,
      "ans": 948,
      "ious": 949,
      "ational": 950,
      "ED": 951,
      "Ġwork": 952,
      "Ġyear": 953,
      "amet": 954,
      "ral": 955,
      "nce": 956,
      "ĠCourt": 957,
      "own": 958,
      "Ġvari": 959,
      "Ġsupp": 960,
      "Ġline": 961,
      "Ġresults": 962,
      "Ġatt": 963,
      "Ġloc": 964,
      "oy": 965,
      "iew": 966,
      "ange": 967,
      "efend": 968,
      "Ġgiven": 969,
      "Ġz": 970,
      "ings": 971,
      "ĠV": 972,
      "Ġboth": 973,
      "Ġcal": 974,
      "Ġchar": 975,
      "Ġher": 976,
      "ns": 977,
      "Ġmin": 978,
      "29": 979,
      "Ġgra": 980,
      "Ġcorre": 981,
      "ince": 982,
      "Ġbecause": 983,
      "ount": 984,
      "ins": 985,
      "Ġincre": 986,
      "Ġspec": 987,
      "Ġpresent": 988,
      "ty": 989,
      "Ġtra": 990,
      "ects": 991,
      "The": 992,
      "Ġspect": 993,
      "vely": 994,
      "Ġpe": 995,
      "ced": 996,
      "ulation": 997,
      "ocument": 998,
      "ks": 999,
      "mat": 1000,
      "Ġstar": 1001,
      "Ġsame": 1002,
      "Ġdifferent": 1003,
      "ms": 1004,
      "Ġ=": 1005,
      "_{": 1006,
      "Ġconf": 1007,
      "Ġparamet": 1008,
      "Ġins": 1009,
      "Ġadd": 1010,
      "Ġmon": 1011,
      "Ġmag": 1012,
      "tice": 1013,
      "uring": 1014,
      "Ġabove": 1015,
      "Ġ`": 1016,
      "Ġabout": 1017,
      "ency": 1018,
      "Ġlim": 1019,
      "Ġmed": 1020,
      "mall": 1021,
      "Ġwell": 1022,
      "ici": 1023,
      "tt": 1024,
      "pos": 1025,
      "ĠĠĠĠĠĠĠ": 1026,
      "Ġstudy": 1027,
      "Ġ20": 1028,
      "ential": 1029,
      "ild": 1030,
      "Ġdeterm": 1031,
      "21": 1032,
      "Ġcomple": 1033,
      "de": 1034,
      "ization": 1035,
      "ved": 1036,
      "Ġnew": 1037,
      "Ġsmall": 1038,
      "cv": 1039,
      "Ġhowever": 1040,
      "ntered": 1041,
      "ech": 1042,
      "ind": 1043,
      "ability": 1044,
      "ĠPage": 1045,
      "Ġes": 1046,
      "Ġsince": 1047,
      "Ġcol": 1048,
      "Ġdesc": 1049,
      "yn": 1050,
      "Ġkn": 1051,
      "Ġ#": 1052,
      "row": 1053,
      "und": 1054,
      "50": 1055,
      "Ġmeasure": 1056,
      "Ġfound": 1057,
      "Ġtyp": 1058,
      "over": 1059,
      "Ġuse": 1060,
      "Entered": 1061,
      "ris": 1062,
      "ĠEx": 1063,
      "Ġexper": 1064,
      "ĠDefend": 1065,
      "Ġradi": 1066,
      "ĠCh": 1067,
      ".,": 1068,
      "ĠUn": 1069,
      "ensity": 1070,
      "Ġthrough": 1071,
      "Ġsch": 1072,
      "Ġdire": 1073,
      "hib": 1074,
      "Ġscal": 1075,
      "ivid": 1076,
      "par": 1077,
      "ost": 1078,
      "ob": 1079,
      "ission": 1080,
      "Ġid": 1081,
      "vers": 1082,
      "ix": 1083,
      "Ġmost": 1084,
      "Ġsection": 1085,
      "tiv": 1086,
      "33": 1087,
      "Ġcell": 1088,
      "Ġpatients": 1089,
      "Ġelect": 1090,
      "Ġprocess": 1091,
      "lec": 1092,
      "Ġinv": 1093,
      "ton": 1094,
      "alth": 1095,
      "Ġhere": 1096,
      "ood": 1097,
      "Ġdue": 1098,
      "ren": 1099,
      "oci": 1100,
      "au": 1101,
      "Ġtem": 1102,
      "Ġcalc": 1103,
      "Ġ12": 1104,
      "Ġfind": 1105,
      "formation": 1106,
      "40": 1107,
      "round": 1108,
      "ru": 1109,
      "ĠCom": 1110,
      "Ġfollowing": 1111,
      "Ġshould": 1112,
      "EN": 1113,
      "Ġlaw": 1114,
      "ines": 1115,
      "Ġthree": 1116,
      "Ġlevel": 1117,
      "ute": 1118,
      "rim": 1119,
      "................................": 1120,
      "xi": 1121,
      "Ġbel": 1122,
      "arly": 1123,
      "ily": 1124,
      "Ġcar": 1125,
      "Ġcould": 1126,
      "pond": 1127,
      "IN": 1128,
      "ective": 1129,
      "Ġprev": 1130,
      "Ġgal": 1131,
      "Ġdistrib": 1132,
      "Ġexam": 1133,
      "ration": 1134,
      "Ġsignific": 1135,
      "Ġthose": 1136,
      "Ġprovid": 1137,
      "Ġdepend": 1138,
      "Ġcent": 1139,
      "Ġyou": 1140,
      "Ġfigure": 1141,
      "Ġconsider": 1142,
      "Ġlat": 1143,
      "Ġwhile": 1144,
      ")(": 1145,
      "mm": 1146,
      "ĉč": 1147,
      "ave": 1148,
      "als": 1149,
      "ploy": 1150,
      "Âł": 1151,
      "Ġposs": 1152,
      "ination": 1153,
      "right": 1154,
      "Ġ?": 1155,
      "the": 1156,
      "Ġlet": 1157,
      "ger": 1158,
      "Ġrev": 1159,
      "35": 1160,
      "Ġneed": 1161,
      "OTI": 1162,
      "uss": 1163,
      "Ġconst": 1164,
      "Ġplan": 1165,
      "Ġshall": 1166,
      "ining": 1167,
      "ision": 1168,
      "ult": 1169,
      "aim": 1170,
      "Ġ``": 1171,
      "Ġlarge": 1172,
      "),": 1173,
      "34": 1174,
      "ator": 1175,
      "respond": 1176,
      "Ġagain": 1177,
      "tern": 1178,
      "plain": 1179,
      "ption": 1180,
      "sh": 1181,
      "Ġproper": 1182,
      "Ġpri": 1183,
      "tal": 1184,
      "ividual": 1185,
      "Ġsimil": 1186,
      "Case": 1187,
      "36": 1188,
      "ension": 1189,
      "____": 1190,
      "Ġcorrespond": 1191,
      "Ġdensity": 1192,
      "Ġden": 1193,
      "Ġsignificant": 1194,
      "tif": 1195,
      "Ġmeth": 1196,
      "Ġwithin": 1197,
      "atis": 1198,
      "Ġduring": 1199,
      "ctions": 1200,
      "ically": 1201,
      "sc": 1202,
      "Ġassum": 1203,
      "urther": 1204,
      "gth": 1205,
      "Ġbefore": 1206,
      "ently": 1207,
      "Ġshown": 1208,
      "ĠPlaintiffs": 1209,
      "Ġmem": 1210,
      "Ġanalys": 1211,
      "37": 1212,
      "ices": 1213,
      "ize": 1214,
      "Ġprog": 1215,
      "Ġ$": 1216,
      "Ġdescrib": 1217,
      "tig": 1218,
      "ev": 1219,
      "Ġnor": 1220,
      "Ġshe": 1221,
      "ning": 1222,
      "Ġpers": 1223,
      "mit": 1224,
      "Ġbased": 1225,
      "ward": 1226,
      "Ġ15": 1227,
      "Ġpot": 1228,
      "Ġpoint": 1229,
      "Ġgroup": 1230,
      "ĠPro": 1231,
      "Ġ11": 1232,
      "ared": 1233,
      "ew": 1234,
      "Ġmet": 1235,
      "Ġx": 1236,
      "Ġsecond": 1237,
      "ness": 1238,
      "Ġcontin": 1239,
      "ath": 1240,
      "Ġvery": 1241,
      "Ġvalues": 1242,
      "ving": 1243,
      "ics": 1244,
      "Ġvalue": 1245,
      "Ġoper": 1246,
      "ject": 1247,
      "ock": 1248,
      "Ġstruct": 1249,
      "inal": 1250,
      "Ġed": 1251,
      "rit": 1252,
      "Ġsing": 1253,
      "Ġindividual": 1254,
      "Ġstand": 1255,
      "Ġproduc": 1256,
      "Ġent": 1257,
      "ĠFiled": 1258,
      "38": 1259,
      "39": 1260,
      "Ġpart": 1261,
      "45": 1262,
      "velop": 1263,
      "Ġthus": 1264,
      "Ġlead": 1265,
      "Ġaddition": 1266,
      "ecti": 1267,
      "Ġbeh": 1268,
      "orted": 1269,
      "rop": 1270,
      "AN": 1271,
      "Ġperi": 1272,
      "ful": 1273,
      "Ġlong": 1274,
      "Ġperfor": 1275,
      "ĠDocument": 1276,
      "Ġmethod": 1277,
      "Ġserv": 1278,
      "Ġdoes": 1279,
      "bers": 1280,
      "raph": 1281,
      "Ġfurther": 1282,
      "Ġpres": 1283,
      "Ġnow": 1284,
      "Ġtr": 1285,
      "ĠAm": 1286,
      "ior": 1287,
      "Ġbound": 1288,
      "ross": 1289,
      "Ġresult": 1290,
      "Ġgeneral": 1291,
      "Ġidenti": 1292,
      "Ġeven": 1293,
      "Ġtemper": 1294,
      "Ġgener": 1295,
      "Ġclaim": 1296,
      "Ġmar": 1297,
      "05": 1298,
      "^{": 1299,
      "ner": 1300,
      "Ġgalax": 1301,
      "rent": 1302,
      "cl": 1303,
      "Ġthem": 1304,
      "ĠY": 1305,
      "hibit": 1306,
      "Ġred": 1307,
      "Ġincluding": 1308,
      "Ġ18": 1309,
      "Ġfre": 1310,
      "ason": 1311,
      "Ġrema": 1312,
      "vestig": 1313,
      "king": 1314,
      "Ġphase": 1315,
      "Ġoffic": 1316,
      "Ġlo": 1317,
      "Ġsuper": 1318,
      "ulations": 1319,
      "Ġcourt": 1320,
      "rict": 1321,
      "AR": 1322,
      "Ġyears": 1323,
      "Ġ14": 1324,
      "ĠNo": 1325,
      "ĠCl": 1326,
      "Ġsl": 1327,
      "Ġocc": 1328,
      "Ġ16": 1329,
      "Ġtri": 1330,
      "Ġend": 1331,
      "Ġobtained": 1332,
      "Ġinformation": 1333,
      "Ġobserved": 1334,
      "Ġanalysis": 1335,
      "Ġgl": 1336,
      "AT": 1337,
      "Ġtreat": 1338,
      "Ġexpress": 1339,
      "Ġback": 1340,
      "Ġpur": 1341,
      "Ġright": 1342,
      "ES": 1343,
      "ged": 1344,
      "Ġiniti": 1345,
      "led": 1346,
      "irc": 1347,
      "IS": 1348,
      "Ġbeing": 1349,
      "Ġemploy": 1350,
      "Ġvi": 1351,
      "up": 1352,
      "igned": 1353,
      "Ġrece": 1354,
      "ten": 1355,
      "Ġassoci": 1356,
      "itive": 1357,
      "Ġstates": 1358,
      "Ġtherefore": 1359,
      "Ġperiod": 1360,
      "Ġ{": 1361,
      "Ġcle": 1362,
      "min": 1363,
      "olution": 1364,
      "Ġav": 1365,
      "Ġbas": 1366,
      "Ġfac": 1367,
      "plic": 1368,
      "Ġspace": 1369,
      "erest": 1370,
      "elf": 1371,
      "ublic": 1372,
      "000": 1373,
      "Ġser": 1374,
      "Ġmul": 1375,
      "Ġproble": 1376,
      "Ġmust": 1377,
      "Ġdiscuss": 1378,
      "Ġphot": 1379,
      "Ġpotential": 1380,
      "Ġiss": 1381,
      "Ġinteg": 1382,
      "idence": 1383,
      "IC": 1384,
      "Ġmean": 1385,
      "rin": 1386,
      "44": 1387,
      ".âĢĿ": 1388,
      "ash": 1389,
      "ark": 1390,
      "Ġlike": 1391,
      "Ġlocal": 1392,
      "Ġcases": 1393,
      "utions": 1394,
      "Ġsour": 1395,
      "âĪ": 1396,
      "Ġhealth": 1397,
      "Ġinvestig": 1398,
      "mmet": 1399,
      "31": 1400,
      "Ġsimilar": 1401,
      "Ġcontro": 1402,
      "ffici": 1403,
      "oh": 1404,
      "âĪĴ": 1405,
      "Ġesti": 1406,
      "netic": 1407,
      "Ġinterest": 1408,
      "Ġau": 1409,
      "Ġinj": 1410,
      "mate": 1411,
      "Ġexperim": 1412,
      "ynam": 1413,
      "TT": 1414,
      "of": 1415,
      "Ġlimit": 1416,
      "Ġrepresent": 1417,
      "Ġ17": 1418,
      "ick": 1419,
      "ĠUnited": 1420,
      "Ġdevelop": 1421,
      "ire": 1422,
      "}}": 1423,
      "ended": 1424,
      "Ġdiag": 1425,
      "ental": 1426,
      "Ġmain": 1427,
      "ĠDefendants": 1428,
      "Ġprot": 1429,
      "ectively": 1430,
      "Ġindic": 1431,
      "ym": 1432,
      "cer": 1433,
      "60": 1434,
      "Ġdistribution": 1435,
      "por": 1436,
      "ĠOr": 1437,
      "Ġima": 1438,
      "Ġabs": 1439,
      "erence": 1440,
      "Ġwithout": 1441,
      "EY": 1442,
      "ĠHe": 1443,
      "Ġdim": 1444,
      "acter": 1445,
      "Ġcurrent": 1446,
      "Ġidentif": 1447,
      "Ġsum": 1448,
      "Ġallow": 1449,
      "err": 1450,
      "Ġinterac": 1451,
      "Ġequation": 1452,
      "ified": 1453,
      "Ġaddress": 1454,
      "Ġeffect": 1455,
      "ĠStates": 1456,
      "47": 1457,
      "tle": 1458,
      "com": 1459,
      "48": 1460,
      "ĠĠĠĠĠĠĠĠĠĠĠĠĠĠĠĠ": 1461,
      "Ġimport": 1462,
      "ĠCO": 1463,
      "ĠÂ§": 1464,
      "Ġflu": 1465,
      "lish": 1466,
      "ĠJud": 1467,
      "Ġrate": 1468,
      "ints": 1469,
      "49": 1470,
      "ople": 1471,
      "very": 1472,
      "ism": 1473,
      "Ġhy": 1474,
      "ower": 1475,
      "ull": 1476,
      "itud": 1477,
      "ality": 1478,
      "Ġdid": 1479,
      "Ġrele": 1480,
      "oma": 1481,
      "ero": 1482,
      "Ġterms": 1483,
      "46": 1484,
      "Ġapproxi": 1485,
      "Ġparticular": 1486,
      "Ġrest": 1487,
      "Ġchild": 1488,
      "Ġmade": 1489,
      "ĠOF": 1490,
      "Ġcare": 1491,
      "Ġaff": 1492,
      "other": 1493,
      "ool": 1494,
      "Ġtotal": 1495,
      "Ġcall": 1496,
      "Ġder": 1497,
      "Ġmany": 1498,
      "Ġreview": 1499,
      "Ġtemperature": 1500,
      "ĠDep": 1501,
      "ived": 1502,
      "Ġsingle": 1503,
      "Ġregion": 1504,
      "Ġstrong": 1505,
      "Ġ''": 1506,
      "Ġvis": 1507,
      "Ġ30": 1508,
      "Ġaction": 1509,
      "Ġwhe": 1510,
      "Ġprevious": 1511,
      "Ġnuc": 1512,
      "ength": 1513,
      "tial": 1514,
      "55": 1515,
      "Ġcontrib": 1516,
      "Ġtreatment": 1517,
      "Ġsug": 1518,
      "Ġtheore": 1519,
      "Ġmodels": 1520,
      "ĠDec": 1521,
      "ditions": 1522,
      ".\"": 1523,
      "ble": 1524,
      "Ġmulti": 1525,
      "ule": 1526,
      "Ġactiv": 1527,
      "frac": 1528,
      "Ġcompon": 1529,
      "anc": 1530,
      "ole": 1531,
      "Ġagainst": 1532,
      "Ġstandard": 1533,
      "ital": 1534,
      "Ġcap": 1535,
      "Ġcorrel": 1536,
      "face": 1537,
      "Ġreduc": 1538,
      "ier": 1539,
      "ORN": 1540,
      "ident": 1541,
      "Ġprovide": 1542,
      "AL": 1543,
      "istic": 1544,
      "Ġviol": 1545,
      "ets": 1546,
      "arch": 1547,
      "ody": 1548,
      "Ġ198": 1549,
      "Ġrange": 1550,
      "Ġhand": 1551,
      "urn": 1552,
      "ording": 1553,
      "Ġq": 1554,
      "ief": 1555,
      "ame": 1556,
      "Ġpred": 1557,
      "ĠState": 1558,
      "Ġcontain": 1559,
      "nel": 1560,
      "Ġte": 1561,
      "Ġinst": 1562,
      "equ": 1563,
      "Ġfrequ": 1564,
      "Ġhigher": 1565,
      "Ġmotion": 1566,
      "Ġti": 1567,
      "Ġpossible": 1568,
      "Ġexc": 1569,
      "70": 1570,
      "Ġdefined": 1571,
      "aff": 1572,
      "Ġcontinu": 1573,
      "ret": 1574,
      "Ġrequire": 1575,
      "Ġfour": 1576,
      "Ġtype": 1577,
      "Ġpeople": 1578,
      "Ġconditions": 1579,
      "Ġmom": 1580,
      "Ġprogram": 1581,
      "ulated": 1582,
      "Ġuni": 1583,
      "ĠĊĠĠĠĠĠĠĠ": 1584,
      "Ġpop": 1585,
      "Ġspin": 1586,
      "Ġparameters": 1587,
      "ng": 1588,
      "Ġdirect": 1589,
      "to": 1590,
      "Ġang": 1591,
      "ually": 1592,
      "rum": 1593,
      "Ġapplic": 1594,
      "titution": 1595,
      "ĠMr": 1596,
      "32": 1597,
      "Ġwhat": 1598,
      "ID": 1599,
      "Ġgr": 1600,
      "Ġfam": 1601,
      "ORNEY": 1602,
      "Ġwhether": 1603,
      "osed": 1604,
      "Ġstructure": 1605,
      "oth": 1606,
      "Ġcoupl": 1607,
      "Ġcoll": 1608,
      "ights": 1609,
      "Ġneg": 1610,
      "ĠATT": 1611,
      "Ġreal": 1612,
      "Ġrespectively": 1613,
      "Ġel": 1614,
      "Ġcer": 1615,
      "ama": 1616,
      "orne": 1617,
      "left": 1618,
      "ii": 1619,
      "omet": 1620,
      "ĠATTORNEY": 1621,
      "ists": 1622,
      "ector": 1623,
      "inary": 1624,
      "Ġlower": 1625,
      "Ġclust": 1626,
      "val": 1627,
      "06": 1628,
      "56": 1629,
      "Ġris": 1630,
      "artment": 1631,
      "gan": 1632,
      "otion": 1633,
      "Ġshows": 1634,
      "Ġconduc": 1635,
      "xt": 1636,
      "Ġcharacter": 1637,
      "usion": 1638,
      "Ġnote": 1639,
      "ĉĉ": 1640,
      "uce": 1641,
      "Ġapproach": 1642,
      "Ġleft": 1643,
      "onal": 1644,
      "Ġimportant": 1645,
      "Ġappear": 1646,
      "Ġconsist": 1647,
      "Ġbi": 1648,
      "Ġpolic": 1649,
      "air": 1650,
      "Ġquant": 1651,
      "Ġnormal": 1652,
      "Ġbehav": 1653,
      "99": 1654,
      "line": 1655,
      "57": 1656,
      "epend": 1657,
      "Ġ13": 1658,
      "ĠTO": 1659,
      "yl": 1660,
      "Ġtest": 1661,
      "ication": 1662,
      "Ġmonth": 1663,
      "Ġnec": 1664,
      "Ġpropos": 1665,
      "eric": 1666,
      "03": 1667,
      "Ġdescribed": 1668,
      "Ġinvol": 1669,
      "Ġmagnetic": 1670,
      "Ġaver": 1671,
      "sp": 1672,
      "Ġpower": 1673,
      "unity": 1674,
      "08": 1675,
      "Ġtable": 1676,
      "Ġlast": 1677,
      "Ġreason": 1678,
      "Ġway": 1679,
      "ances": 1680,
      "ĉčĠ": 1681,
      "nment": 1682,
      "Ġassociated": 1683,
      "ention": 1684,
      "Ġquantum": 1685,
      "na": 1686,
      "struc": 1687,
      "Ġfactor": 1688,
      "Ġauth": 1689,
      "Ġsit": 1690,
      "Ġreported": 1691,
      "Ġnucle": 1692,
      "ological": 1693,
      "Ġdel": 1694,
      "Ġfail": 1695,
      "Ġstat": 1696,
      "04": 1697,
      "Ġpost": 1698,
      "59": 1699,
      "Ġpublic": 1700,
      "58": 1701,
      "07": 1702,
      "Ġalle": 1703,
      "Ġrem": 1704,
      "ology": 1705,
      "Ġfree": 1706,
      "Ġgover": 1707,
      "Ġfiled": 1708,
      "Ġsever": 1709,
      "Ġcells": 1710,
      "here": 1711,
      "ink": 1712,
      "Ġreport": 1713,
      "ederal": 1714,
      "Ġevery": 1715,
      "Ġdem": 1716,
      "Ġeffects": 1717,
      "Ġprof": 1718,
      "Ġcount": 1719,
      "land": 1720,
      "imum": 1721,
      "Ġvel": 1722,
      "Ġexample": 1723,
      "Ġdays": 1724,
      "Ġoccur": 1725,
      "ug": 1726,
      "rix": 1727,
      "ĠExhibit": 1728,
      "day": 1729,
      "Ġdeg": 1730,
      "Ġless": 1731,
      "Ġsti": 1732,
      "Ġdynam": 1733,
      "Ġir": 1734,
      "Ġhel": 1735,
      "Ġhim": 1736,
      "OTIC": 1737,
      "echn": 1738,
      "til": 1739,
      "Ġcorresponding": 1740,
      "09": 1741,
      "Ġmake": 1742,
      "TION": 1743,
      "ium": 1744,
      "Ġtheory": 1745,
      "though": 1746,
      "read": 1747,
      "}{": 1748,
      "omen": 1749,
      "Ġinitial": 1750,
      "oss": 1751,
      "mary": 1752,
      "Ġparameter": 1753,
      "Ġproced": 1754,
      "eed": 1755,
      "Ġveloc": 1756,
      "ĠOrder": 1757,
      "ict": 1758,
      "ont": 1759,
      "atory": 1760,
      "ode": 1761,
      "Ġlight": 1762,
      "Ġcontrol": 1763,
      "Ġchang": 1764,
      "Ġgu": 1765,
      "atter": 1766,
      "Ġmoment": 1767,
      "ife": 1768,
      "Ġarg": 1769,
      "68": 1770,
      "Ġstudies": 1771,
      "67": 1772,
      "Ġprac": 1773,
      "Ġcirc": 1774,
      "Ġsystems": 1775,
      "02": 1776,
      "Ġsurface": 1777,
      "orts": 1778,
      "Ġsm": 1779,
      "Ġcompar": 1780,
      "Ġmatter": 1781,
      "Ġfit": 1782,
      "verse": 1783,
      "69": 1784,
      "Ġrelated": 1785,
      "Ġjust": 1786,
      "ene": 1787,
      "reement": 1788,
      "ither": 1789,
      "uted": 1790,
      "ĠNOTIC": 1791,
      "Ġscale": 1792,
      "urb": 1793,
      "alu": 1794,
      "Ġmy": 1795,
      "ane": 1796,
      "oun": 1797,
      "onse": 1798,
      "Ġrati": 1799,
      "Ġmuch": 1800,
      "Ġelectron": 1801,
      "42": 1802,
      "Ġcross": 1803,
      "Ġtimes": 1804,
      "EC": 1805,
      "Ġavail": 1806,
      "Ġknown": 1807,
      "ilities": 1808,
      "rison": 1809,
      "ĠJudge": 1810,
      "Ġcondition": 1811,
      "ĠSu": 1812,
      "fer": 1813,
      "Ġret": 1814,
      "Ġconstant": 1815,
      "Ġfil": 1816,
      "ĠSec": 1817,
      "son": 1818,
      "Ġrequired": 1819,
      "Ġdefend": 1820,
      "Ġhal": 1821,
      "Ġsupport": 1822,
      "ĠNew": 1823,
      "ĠÂł": 1824,
      "IT": 1825,
      "Ġfollows": 1826,
      "Ġtop": 1827,
      "Ġsymmet": 1828,
      "Ġtake": 1829,
      "ĠSee": 1830,
      "gment": 1831,
      "itor": 1832,
      "Ġsize": 1833,
      "tically": 1834,
      "Ġproblem": 1835,
      "Ġleg": 1836,
      "ĠRep": 1837,
      "Ġdifferen": 1838,
      "Ġneut": 1839,
      "Ġget": 1840,
      "Ġgalaxies": 1841,
      "Ġcompared": 1842,
      "Ġ28": 1843,
      "Ġpaper": 1844,
      "Ġques": 1845,
      "mission": 1846,
      "77": 1847,
      "ural": 1848,
      "Ġstars": 1849,
      "Ġsolution": 1850,
      "Ġevidence": 1851,
      "Ġvol": 1852,
      "Ġcy": 1853,
      "Ġseveral": 1854,
      "Ġorig": 1855,
      "41": 1856,
      "Ġsepar": 1857,
      "Ġtechn": 1858,
      "ately": 1859,
      "ators": 1860,
      "Ġimm": 1861,
      "Ġdimension": 1862,
      "Ġdown": 1863,
      "amp": 1864,
      "Ġanaly": 1865,
      "65": 1866,
      "Ġknow": 1867,
      "Ġevalu": 1868,
      "Ġeffective": 1869,
      "ox": 1870,
      "Ġregard": 1871,
      "Ġsubs": 1872,
      "ĠâĢĺ": 1873,
      "bit": 1874,
      "ield": 1875,
      "Ġmembers": 1876,
      "Ġdetail": 1877,
      "Ġleast": 1878,
      "Ġ25": 1879,
      "Ġwor": 1880,
      "Ġwee": 1881,
      "Ġcomb": 1882,
      "ĠAct": 1883,
      "43": 1884,
      "Ġnumer": 1885,
      "ĠCity": 1886,
      "pri": 1887,
      "Ġnecess": 1888,
      "atisf": 1889,
      "su": 1890,
      "rm": 1891,
      "isc": 1892,
      "75": 1893,
      "oid": 1894,
      "Ġfunctions": 1895,
      "ceed": 1896,
      "Ġanti": 1897,
      "----": 1898,
      "idth": 1899,
      "hip": 1900,
      "Ġindepend": 1901,
      "Ġact": 1902,
      "Ġwave": 1903,
      "Ġest": 1904,
      "Ġimpro": 1905,
      "sequ": 1906,
      "Ġday": 1907,
      "Ġadv": 1908,
      "Ġrisk": 1909,
      "78": 1910,
      "Ġmatrix": 1911,
      "ead": 1912,
      "Ġemission": 1913,
      "Ġaround": 1914,
      "ote": 1915,
      "Ġbre": 1916,
      "Ġconsidered": 1917,
      "Ġzero": 1918,
      "DER": 1919,
      "ĠTH": 1920,
      "Ġalong": 1921,
      "me": 1922,
      "iance": 1923,
      "Ġaccording": 1924,
      "ĠApp": 1925,
      "lect": 1926,
      "Ġap": 1927,
      "mates": 1928,
      "Ġtre": 1929,
      "66": 1930,
      "que": 1931,
      "ĠAl": 1932,
      "Ġavailable": 1933,
      ",\"": 1934,
      "Ġrecord": 1935,
      "minist": 1936,
      "Ġsample": 1937,
      "Ġstill": 1938,
      "Ġhar": 1939,
      "Ġcho": 1940,
      "ĠCount": 1941,
      "arg": 1942,
      "Ġband": 1943,
      "Ġdecre": 1944,
      "Ġsatisf": 1945,
      "98": 1946,
      "Ġinfl": 1947,
      "Ġerr": 1948,
      "ples": 1949,
      "Ġbelow": 1950,
      "ying": 1951,
      "Ġprovided": 1952,
      "less": 1953,
      "ety": 1954,
      "itude": 1955,
      "atures": 1956,
      "ees": 1957,
      "Ġopp": 1958,
      "cept": 1959,
      "Ġpoints": 1960,
      "Ġcontr": 1961,
      "Ġlines": 1962,
      "wn": 1963,
      "Ġanother": 1964,
      "Ġplace": 1965,
      "UR": 1966,
      "ĠDist": 1967,
      "ĠAd": 1968,
      "Ġlik": 1969,
      "Ġspecific": 1970,
      "Ġspectrum": 1971,
      "app": 1972,
      "mitted": 1973,
      "Ġage": 1974,
      "Ġproperties": 1975,
      "Ġplay": 1976,
      "orn": 1977,
      "ah": 1978,
      "onstr": 1979,
      "oint": 1980,
      "ENT": 1981,
      "'t": 1982,
      "Ġpositive": 1983,
      "orm": 1984,
      "Ġgas": 1985,
      "Ġke": 1986,
      "Ġlength": 1987,
      "Ġexist": 1988,
      "Ġpair": 1989,
      "echan": 1990,
      "raction": 1991,
      "ĠPlaintiff": 1992,
      "79": 1993,
      "ember": 1994,
      "Ġlinear": 1995,
      "Ġtaken": 1996,
      "Ġseen": 1997,
      "Ġfix": 1998,
      "Ġrespect": 1999,
      "asing": 2000,
      "ority": 2001,
      "reen": 2002,
      "Ġstep": 2003,
      "Ġgood": 2004,
      "ised": 2005,
      "Ġchange": 2006,
      "tices": 2007,
      "ope": 2008,
      "Ġnear": 2009,
      "ablish": 2010,
      "roduc": 2011,
      "Ġvelocity": 2012,
      "Ġbro": 2013,
      "Ġcri": 2014,
      "Ġcre": 2015,
      "Ġappropri": 2016,
      "Ġpath": 2017,
      "Ġ24": 2018,
      "Ġalthough": 2019,
      "osp": 2020,
      "nsel": 2021,
      "ury": 2022,
      "by": 2023,
      "AS": 2024,
      "Ġdise": 2025,
      "reg": 2026,
      "ĉčĠÂł": 2027,
      "Ġamong": 2028,
      "Ġservices": 2029,
      "ĠMotion": 2030,
      "ters": 2031,
      "ift": 2032,
      "oms": 2033,
      "omes": 2034,
      "Ġcomplex": 2035,
      "ĠOR": 2036,
      "Ġpress": 2037,
      "Ġchildren": 2038,
      "Ġjud": 2039,
      "Ġstaff": 2040,
      "omin": 2041,
      "Ġquan": 2042,
      "OTION": 2043,
      "ĠSh": 2044,
      "Ġmax": 2045,
      "work": 2046,
      "ival": 2047,
      "Ġmechan": 2048,
      "Ġdev": 2049,
      "Ġdetermined": 2050,
      "ĠIt": 2051,
      "Ġmagn": 2052,
      "tics": 2053,
      "ked": 2054,
      "ĠĠĠĠĠ": 2055,
      "ern": 2056,
      "Ġflux": 2057,
      "ĠDepartment": 2058,
      "ĠAs": 2059,
      "Ġ23": 2060,
      "ĠBE": 2061,
      "Ġperson": 2062,
      "Ġinteraction": 2063,
      "OC": 2064,
      "Ġstatis": 2065,
      "jects": 2066,
      "Ġfund": 2067,
      "pliance": 2068,
      ");": 2069,
      "ĠThis": 2070,
      "Ġtransition": 2071,
      "Ġsource": 2072,
      "Ġevolution": 2073,
      "Ġdemonstr": 2074,
      "ci": 2075,
      "53": 2076,
      "Ġaverage": 2077,
      "ĠCounty": 2078,
      "51": 2079,
      "Ġmedical": 2080,
      "Ġlarger": 2081,
      "abel": 2082,
      "Ġcaus": 2083,
      "ĠWh": 2084,
      "Ġconn": 2085,
      "Ġbr": 2086,
      "Ġappl": 2087,
      "Ġben": 2088,
      "Ġpredic": 2089,
      "ĠMOTION": 2090,
      "ense": 2091,
      "ably": 2092,
      "gor": 2093,
      "earch": 2094,
      "Ġnext": 2095,
      "II": 2096,
      "Ġsequ": 2097,
      "ages": 2098,
      "Ġclin": 2099,
      "plement": 2100,
      "________": 2101,
      "64": 2102,
      "Ġfamily": 2103,
      "See": 2104,
      "mon": 2105,
      "88": 2106,
      "Ġge": 2107,
      ",\\": 2108,
      "97": 2109,
      "pr": 2110,
      "Ġgovernment": 2111,
      "fficient": 2112,
      "Ġbasis": 2113,
      "AC": 2114,
      "Ġhist": 2115,
      "ĠId": 2116,
      "Ġeither": 2117,
      "52": 2118,
      "con": 2119,
      "Ġphysical": 2120,
      "Ġposition": 2121,
      "way": 2122,
      "Ġparticle": 2123,
      "Ġnet": 2124,
      "Ġbar": 2125,
      "ours": 2126,
      "Ġdri": 2127,
      "Ġfinal": 2128,
      "gest": 2129,
      "terial": 2130,
      "Ġrand": 2131,
      "ĠDefendant": 2132,
      "Ġtes": 2133,
      "Ġperformed": 2134,
      "eta": 2135,
      "Ġincrease": 2136,
      "ĠDistrict": 2137,
      "ots": 2138,
      "aring": 2139,
      "54": 2140,
      "cal": 2141,
      "omm": 2142,
      "Ġexpected": 2143,
      "Ġpopulation": 2144,
      "Ġfrequency": 2145,
      "Ġgreat": 2146,
      "Ġratio": 2147,
      "Ġgroups": 2148,
      "Ġmaj": 2149,
      "Ġgrow": 2150,
      "Ġadditional": 2151,
      "eb": 2152,
      "Ġschool": 2153,
      "osis": 2154,
      "Ġdifference": 2155,
      "63": 2156,
      "Ġlevels": 2157,
      "ables": 2158,
      "Ġ100": 2159,
      "Ġestablish": 2160,
      "Ġens": 2161,
      "itions": 2162,
      "gs": 2163,
      "Ġresponse": 2164,
      "EL": 2165,
      "lected": 2166,
      "Ġplaintiffs": 2167,
      "Ġopen": 2168,
      "Ġequations": 2169,
      "Ġrandom": 2170,
      "90": 2171,
      "orney": 2172,
      "61": 2173,
      "Ġmic": 2174,
      "Ġcost": 2175,
      "stand": 2176,
      "Ġtheorem": 2177,
      "Ġpatient": 2178,
      "Ġclaims": 2179,
      "62": 2180,
      "lection": 2181,
      "Ġfull": 2182,
      "ta": 2183,
      "cent": 2184,
      "Ġbehavior": 2185,
      "Ġord": 2186,
      "eal": 2187,
      "ater": 2188,
      "une": 2189,
      "ai": 2190,
      "ley": 2191,
      "acy": 2192,
      "Ġampl": 2193,
      "Ġsk": 2194,
      "tition": 2195,
      "Ġinduc": 2196,
      "ules": 2197,
      "agraph": 2198,
      "bs": 2199,
      "Ġinclude": 2200,
      "Ġmeans": 2201,
      "Ġgraph": 2202,
      "ibility": 2203,
      "unction": 2204,
      "uts": 2205,
      "In": 2206,
      "73": 2207,
      "orph": 2208,
      "ĠCir": 2209,
      "ĠAn": 2210,
      "_{\\": 2211,
      "Ġarea": 2212,
      "Ġcommon": 2213,
      "ext": 2214,
      "Ġfinite": 2215,
      "medi": 2216,
      "ird": 2217,
      "Ġconsistent": 2218,
      "Ġray": 2219,
      "och": 2220,
      "Ġindependent": 2221,
      "Ġread": 2222,
      "Ġassess": 2223,
      "Ġprom": 2224,
      "Ġwrit": 2225,
      "umin": 2226,
      "95": 2227,
      "Ġshort": 2228,
      "ouse": 2229,
      ".'": 2230,
      "71": 2231,
      "ĠCons": 2232,
      "cd": 2233,
      "arl": 2234,
      "Ġhold": 2235,
      "Ġimplement": 2236,
      "ging": 2237,
      "Ġdefin": 2238,
      "io": 2239,
      "Ġsugges": 2240,
      "Ġbu": 2241,
      "Ġside": 2242,
      "Ġexpression": 2243,
      "94": 2244,
      "Ġill": 2245,
      "Ġmeasured": 2246,
      "Ġsus": 2247,
      "80": 2248,
      "Ġappropriate": 2249,
      "ĠORDER": 2250,
      "big": 2251,
      "uman": 2252,
      "Ġobservations": 2253,
      "72": 2254,
      "Ġhence": 2255,
      "Ġ21": 2256,
      "(\\": 2257,
      "74": 2258,
      "ĠNOTICED": 2259,
      "Ġfew": 2260,
      "Ġhome": 2261,
      "Ġthough": 2262,
      "plaint": 2263,
      "96": 2264,
      "atively": 2265,
      "Ġpeak": 2266,
      "Ġpresented": 2267,
      "Ġcalled": 2268,
      "Ġsens": 2269,
      "Ġsuc": 2270,
      "Ġblack": 2271,
      "urity": 2272,
      "RO": 2273,
      "Ġrot": 2274,
      "Ġnecessary": 2275,
      "76": 2276,
      "pec": 2277,
      "ND": 2278,
      "isions": 2279,
      "lim": 2280,
      "Ġlem": 2281,
      "ellar": 2282,
      "Ġprison": 2283,
      "Ġrespons": 2284,
      "Ġindividuals": 2285,
      "vant": 2286,
      "ification": 2287,
      "Ġsay": 2288,
      "Ġmm": 2289,
      "Ġpay": 2290,
      "Ġlife": 2291,
      "Ġmonths": 2292,
      "utes": 2293,
      "PD": 2294,
      "pers": 2295,
      "Ġlit": 2296,
      "mental": 2297,
      "Ġshowed": 2298,
      "Ġprop": 2299,
      "Ġaccess": 2300,
      "Ġchanges": 2301,
      "Ġresid": 2302,
      "Ġclose": 2303,
      "Ġcomponent": 2304,
      "Ġrelations": 2305,
      "Ġself": 2306,
      "Ġexpl": 2307,
      "ries": 2308,
      "Ġexplain": 2309,
      "Ġsym": 2310,
      "Ġparticip": 2311,
      "Ġdistance": 2312,
      "Ġtold": 2313,
      "ema": 2314,
      "Ġ01": 2315,
      "Ġ05": 2316,
      "ivil": 2317,
      "lying": 2318,
      "ences": 2319,
      "ograph": 2320,
      "Ġaccount": 2321,
      "ression": 2322,
      "Ġpolar": 2323,
      "Ġformation": 2324,
      "pro": 2325,
      "Ġforce": 2326,
      "ĠĠĠĠĠĠĠĠĠĠĠĠĠĠĠ": 2327,
      "ured": 2328,
      "Ġcritical": 2329,
      "Ġfactors": 2330,
      "93": 2331,
      "ĠRes": 2332,
      "port": 2333,
      "Ġcluster": 2334,
      "Ġflow": 2335,
      "Ġfar": 2336,
      "Ġmolec": 2337,
      "Ġprote": 2338,
      "ĠQ": 2339,
      "Ġ04": 2340,
      "Ġproposed": 2341,
      "inc": 2342,
      "Ġsex": 2343,
      "gen": 2344,
      "Ġcour": 2345,
      "Ġresearch": 2346,
      "ĠOff": 2347,
      "olic": 2348,
      "Ġcoun": 2349,
      "Ġhelp": 2350,
      "rap": 2351,
      "Ġmaterial": 2352,
      "Ġpass": 2353,
      "Ġrun": 2354,
      "ience": 2355,
      "Ġconstra": 2356,
      "Ġpolicy": 2357,
      "Ġprec": 2358,
      "Ġsignificantly": 2359,
      "ison": 2360,
      "Ġorgan": 2361,
      "Ġsqu": 2362,
      "uration": 2363,
      "ued": 2364,
      "pper": 2365,
      "Ġbur": 2366,
      "Ġ06": 2367,
      "Ġprobability": 2368,
      "Ġpul": 2369,
      "Ġofficial": 2370,
      "ĠAg": 2371,
      "mar": 2372,
      "Ġcorrelation": 2373,
      "Ġbody": 2374,
      "Ġ22": 2375,
      "ground": 2376,
      "not": 2377,
      "Ġ09": 2378,
      "sy": 2379,
      "ĠAtt": 2380,
      "Ġpresence": 2381,
      "Ġlater": 2382,
      "imal": 2383,
      "ams": 2384,
      "Ġunit": 2385,
      "Ġax": 2386,
      "vity": 2387,
      "Ġ50": 2388,
      "Ġweak": 2389,
      "ĠFor": 2390,
      "Ġtraining": 2391,
      "Ġscatter": 2392,
      "ending": 2393,
      "Ġdisease": 2394,
      "Ġclear": 2395,
      "Ġview": 2396,
      "ray": 2397,
      "AD": 2398,
      "IL": 2399,
      "Ġcoupling": 2400,
      "year": 2401,
      "form": 2402,
      "ĠĠĠĠĠĠĠĠĠĠĠ": 2403,
      "nal": 2404,
      "ĠCon": 2405,
      "Ġmight": 2406,
      "Ġ08": 2407,
      "Ġlikely": 2408,
      "duce": 2409,
      "ober": 2410,
      "lo": 2411,
      "Ġground": 2412,
      "Ġparticles": 2413,
      "Ġtarg": 2414,
      "Ġquestion": 2415,
      "versity": 2416,
      "Ġbest": 2417,
      "gin": 2418,
      "Ġ03": 2419,
      "Ġdiagn": 2420,
      "Ġdra": 2421,
      "100": 2422,
      "ĠCor": 2423,
      "den": 2424,
      "Ġdetermine": 2425,
      "ĠAnd": 2426,
      "Ġlook": 2427,
      "2020": 2428,
      "rid": 2429,
      "Ġdiscrim": 2430,
      "Ġsimple": 2431,
      "ĠAmeric": 2432,
      "Ġmomentum": 2433,
      "ott": 2434,
      "Ġincreased": 2435,
      "Ġeas": 2436,
      "Ġcalculated": 2437,
      "li": 2438,
      "Ġrecent": 2439,
      "annel": 2440,
      "Ġsw": 2441,
      "tlement": 2442,
      "Ġep": 2443,
      "ake": 2444,
      "outh": 2445,
      "Ġboundary": 2446,
      "Ġnetwork": 2447,
      "Ġloss": 2448,
      "Ġcertain": 2449,
      "Ġsearch": 2450,
      "91": 2451,
      "Ġcm": 2452,
      "92": 2453,
      "ĠST": 2454,
      "Ġfixed": 2455,
      "Ġgive": 2456,
      "ned": 2457,
      "85": 2458,
      "Ġevent": 2459,
      "Ġwa": 2460,
      "Ġexact": 2461,
      "Ġequal": 2462,
      "ĠIN": 2463,
      "Ġsubst": 2464,
      "Ġcentral": 2465,
      "allen": 2466,
      "ars": 2467,
      "ĠAss": 2468,
      "Ġgalaxy": 2469,
      "Ġassume": 2470,
      "Ġcr": 2471,
      "Ġfields": 2472,
      "vention": 2473,
      "Ġvarious": 2474,
      "Ġrather": 2475,
      "Ġvers": 2476,
      "Ġ--": 2477,
      "abor": 2478,
      "rest": 2479,
      "Ġann": 2480,
      "Ġheld": 2481,
      "Ġ26": 2482,
      "Ġsources": 2483,
      "Ġreach": 2484,
      "aces": 2485,
      "âĢľ": 2486,
      "ĠSch": 2487,
      "osition": 2488,
      "83": 2489,
      "ored": 2490,
      "itation": 2491,
      "Ġvector": 2492,
      "Ġrelation": 2493,
      "ĠTHE": 2494,
      "81": 2495,
      "ĠInc": 2496,
      "Ġsitu": 2497,
      "Ġcoe": 2498,
      "Ġ07": 2499,
      "thing": 2500,
      "amil": 2501,
      "Ġstra": 2502,
      "Ġrole": 2503,
      "amb": 2504,
      "Ġissue": 2505,
      "Ġach": 2506,
      "Ġdisk": 2507,
      "Ġii": 2508,
      "Ġfederal": 2509,
      "Ġincluded": 2510,
      "Ġspectra": 2511,
      "Ġwar": 2512,
      "cri": 2513,
      "ĠJoh": 2514,
      "87": 2515,
      "Ġadminist": 2516,
      "86": 2517,
      "hat": 2518,
      "Ġimpl": 2519,
      "ĠServ": 2520,
      "aligned": 2521,
      "82": 2522,
      "Ġmicro": 2523,
      "Ġupon": 2524,
      "erc": 2525,
      "Ġadj": 2526,
      "Ġparties": 2527,
      "ST": 2528,
      "Ġfram": 2529,
      "89": 2530,
      "Ġfive": 2531,
      "Ġoptical": 2532,
      "Ġapplied": 2533,
      "az": 2534,
      "Ġmix": 2535,
      "uments": 2536,
      "ready": 2537,
      "LA": 2538,
      "lar": 2539,
      "Ġearly": 2540,
      "ww": 2541,
      "//": 2542,
      "ker": 2543,
      "turb": 2544,
      "igen": 2545,
      "cle": 2546,
      "oper": 2547,
      "ulate": 2548,
      "Ġcharge": 2549,
      "ordin": 2550,
      "Ġuntil": 2551,
      "Ġsignal": 2552,
      "................................................................": 2553,
      "Ġrelief": 2554,
      ".)": 2555,
      "wise": 2556,
      "rate": 2557,
      "Ġregions": 2558,
      "Ġsuccess": 2559,
      "Ġdiscussed": 2560,
      "aced": 2561,
      "Ġ2012": 2562,
      "ĠPar": 2563,
      "ime": 2564,
      ")\\": 2565,
      "Ġprior": 2566,
      "Ġown": 2567,
      "Ġbenef": 2568,
      "Ġlumin": 2569,
      "ler": 2570,
      "Ġpan": 2571,
      "ospital": 2572,
      "Ġconcent": 2573,
      "ina": 2574,
      "miss": 2575,
      "Ġwomen": 2576,
      "Ġalready": 2577,
      "Ġstart": 2578,
      "Ġidentified": 2579,
      "Ġactivity": 2580,
      "ways": 2581,
      "Ġinterp": 2582,
      "Ġsix": 2583,
      "Ġhaving": 2584,
      "Ġbelie": 2585,
      "ĠRe": 2586,
      "umber": 2587,
      "ds": 2588,
      "ape": 2589,
      "ames": 2590,
      "Ġadded": 2591,
      "Ġchannel": 2592,
      "Ġnegative": 2593,
      "vir": 2594,
      "Ġagreement": 2595,
      "ank": 2596,
      "Ġexperimental": 2597,
      "mately": 2598,
      "force": 2599,
      "84": 2600,
      "ogn": 2601,
      "ithm": 2602,
      "titutional": 2603,
      "Ġpolice": 2604,
      "ĠĊĠĠĠĠĠĠĠĠĠĠĠĠĠĠĠ": 2605,
      "Ġferm": 2606,
      "ĠLE": 2607,
      "Ġintroduc": 2608,
      "ĠÂ¶": 2609,
      "Ġmaximum": 2610,
      "Ġachie": 2611,
      "Ġ2013": 2612,
      "Ġplane": 2613,
      "Ġchem": 2614,
      "rated": 2615,
      "Ġdou": 2616,
      "Ġsaf": 2617,
      "Ġlattice": 2618,
      "ĠAr": 2619,
      "Ġhyper": 2620,
      "Ġweek": 2621,
      "Ġaccur": 2622,
      "osity": 2623,
      "Ġpressure": 2624,
      "Ġreve": 2625,
      "put": 2626,
      "Ġconfir": 2627,
      "els": 2628,
      "Ġrelative": 2629,
      "Ġyield": 2630,
      "Ġalgor": 2631,
      "uture": 2632,
      "Ġhom": 2633,
      "Ġcomplete": 2634,
      "encies": 2635,
      "Ġhard": 2636,
      "oot": 2637,
      "Ġnumerical": 2638,
      "Ġamount": 2639,
      "Ġdate": 2640,
      "ract": 2641,
      "Ġmeet": 2642,
      "Ġspectral": 2643,
      "ems": 2644,
      "Ġ27": 2645,
      "nor": 2646,
      "Ġdomin": 2647,
      "non": 2648,
      "hold": 2649,
      "atic": 2650,
      "Ġproceed": 2651,
      "Ġ<": 2652,
      "Ġcos": 2653,
      "Ġold": 2654,
      "ula": 2655,
      "MENT": 2656,
      "Ġmeasurements": 2657,
      "Â·": 2658,
      "ĠBut": 2659,
      "urs": 2660,
      "Ġabsor": 2661,
      "Ġcomponents": 2662,
      "Ġconstruc": 2663,
      "Ġsmaller": 2664,
      "Ġ2000": 2665,
      "Ġeigen": 2666,
      "Ġfoc": 2667,
      "Ġdiffic": 2668,
      "Ġregarding": 2669,
      "Ġ02": 2670,
      "Ġdiscre": 2671,
      "oph": 2672,
      "Ġpat": 2673,
      "Ġnotice": 2674,
      "ept": 2675,
      "Ġclinical": 2676,
      "ends": 2677,
      "Ġvia": 2678,
      "osph": 2679,
      "Ġsurve": 2680,
      "Ġmethods": 2681,
      "ĠCal": 2682,
      "ĠLe": 2683,
      "Ġspecial": 2684,
      "Ġincreasing": 2685,
      "Ġchallen": 2686,
      "odes": 2687,
      "ling": 2688,
      "Ġrights": 2689,
      "Ġcounsel": 2690,
      "Ġsimulations": 2691,
      "Ġequival": 2692,
      "Ġunderstand": 2693,
      "Ġ\\\\": 2694,
      "~~": 2695,
      "da": 2696,
      "Ġradius": 2697,
      "cs": 2698,
      "Ġdimensional": 2699,
      "zed": 2700,
      "Ġsubject": 2701,
      "iving": 2702,
      "ĠInd": 2703,
      "most": 2704,
      "igration": 2705,
      "Ġast": 2706,
      "Ġreson": 2707,
      "ides": 2708,
      "ĠMan": 2709,
      "Ġdependence": 2710,
      "Ġfinally": 2711,
      "omic": 2712,
      "Ġ2006": 2713,
      "Ġdirection": 2714,
      "Ġbackground": 2715,
      "Ġve": 2716,
      "use": 2717,
      "af": 2718,
      "amilton": 2719,
      "eter": 2720,
      "Ġsn": 2721,
      "rief": 2722,
      "Ġ29": 2723,
      "Ġprin": 2724,
      "ering": 2725,
      "Ġscattering": 2726,
      "EP": 2727,
      "Ġperturb": 2728,
      "Ġvan": 2729,
      "astic": 2730,
      "ume": 2731,
      "Ġgives": 2732,
      "Ġnever": 2733,
      "Ġ40": 2734,
      "Ġable": 2735,
      "Ġprovides": 2736,
      "Ġorigin": 2737,
      "Ġremov": 2738,
      "Ġsite": 2739,
      "Ġhyp": 2740,
      "Ġ2010": 2741,
      "ĠMon": 2742,
      "viron": 2743,
      "Ġrelevant": 2744,
      "Ġfuture": 2745,
      "TH": 2746,
      "It": 2747,
      "Ġsymmetry": 2748,
      "Ġlimited": 2749,
      "Ġ2011": 2750,
      "Ġhalf": 2751,
      "Ġtransfer": 2752,
      "Ġstri": 2753,
      "Ġdynamics": 2754,
      "Ġstellar": 2755,
      "ming": 2756,
      "dro": 2757,
      "Ġupper": 2758,
      "Ġ42": 2759,
      "arent": 2760,
      "certain": 2761,
      "Ġrates": 2762,
      "pped": 2763,
      "ections": 2764,
      "Ġ2008": 2765,
      "Ġ2007": 2766,
      "fl": 2767,
      "Ġstatus": 2768,
      "ĠUS": 2769,
      "Ġcommun": 2770,
      "Ġtarget": 2771,
      "Ġevents": 2772,
      "://": 2773,
      "Ġofficers": 2774,
      "Ġreduced": 2775,
      "Ġthird": 2776,
      "Ġbetter": 2777,
      "Ġdecision": 2778,
      "ensive": 2779,
      "Ġ2009": 2780,
      "Ġlemma": 2781,
      "Ġapproximation": 2782,
      "Ġcontribution": 2783,
      "Ġdocument": 2784,
      "Ġbra": 2785,
      "eck": 2786,
      "Ġtechni": 2787,
      "mated": 2788,
      "Ġdru": 2789,
      "Ġrefer": 2790,
      "Ġerror": 2791,
      "amma": 2792,
      "ried": 2793,
      "Ġnat": 2794,
      "Ġconclud": 2795,
      "Ġgrant": 2796,
      "ĠYork": 2797,
      "Ġproof": 2798,
      "Ġsolutions": 2799,
      "Ġdecay": 2800,
      "Ġ2005": 2801,
      "ially": 2802,
      "Ġconsequ": 2803,
      "Ġdefendants": 2804,
      "ĠClass": 2805,
      "rength": 2806,
      "co": 2807,
      "Ġfraction": 2808,
      "aled": 2809,
      "Ġcause": 2810,
      "Ġconduct": 2811,
      "Ġprocedure": 2812,
      "Ġion": 2813,
      "Ġdefine": 2814,
      "Ġworld": 2815,
      "ĠMich": 2816,
      "Ġdoc": 2817,
      "ho": 2818,
      "ĠAND": 2819,
      "Ġreac": 2820,
      "Ġmultiple": 2821,
      "Ġ2020": 2822,
      "Th": 2823,
      "Ġwritten": 2824,
      "ĠMc": 2825,
      "retary": 2826,
      "Ġcommunity": 2827,
      "gether": 2828,
      "Ġtaking": 2829,
      "Ġresolution": 2830,
      "Ġderived": 2831,
      "Ġcenter": 2832,
      "ĠCo": 2833,
      "Ġide": 2834,
      "Ġcover": 2835,
      "Ġlog": 2836,
      "opy": 2837,
      "kn": 2838,
      "Ġhead": 2839,
      "Ġsubstan": 2840,
      "ateg": 2841,
      "Ġreceived": 2842,
      "Ġstrength": 2843,
      "ocial": 2844,
      "Ġredsh": 2845,
      "Ġadop": 2846,
      "be": 2847,
      "Ġ2004": 2848,
      "Ġcurve": 2849,
      "âĢ¢": 2850,
      "agement": 2851,
      "Ġcharacteristic": 2852,
      "Ġput": 2853,
      "ĠSupp": 2854,
      "Ġimprove": 2855,
      "thers": 2856,
      "Ġlay": 2857,
      "Ġvac": 2858,
      "Ġbecomes": 2859,
      "Ġsuff": 2860,
      "Ġful": 2861,
      "Ġwhose": 2862,
      "Ġsem": 2863,
      "go": 2864,
      "ĠCent": 2865,
      "ather": 2866,
      "ĠOn": 2867,
      "Ġfore": 2868,
      "Ġdesign": 2869,
      "bf": 2870,
      "Ġrecently": 2871,
      "erve": 2872,
      "rs": 2873,
      "Ġbecome": 2874,
      "iness": 2875,
      "overy": 2876,
      "Ġhuman": 2877,
      "Ġbreak": 2878,
      "Att": 2879,
      "Ġcut": 2880,
      "Ġdeath": 2881,
      "more": 2882,
      "ches": 2883,
      "ores": 2884,
      "Ġwater": 2885,
      "suant": 2886,
      "ĠAll": 2887,
      "Ġeng": 2888,
      "Ġosc": 2889,
      "mand": 2890,
      "Ġsequence": 2891,
      "âĢĶ": 2892,
      "ĠMar": 2893,
      "ring": 2894,
      "Ġcomput": 2895,
      "^{\\": 2896,
      "ga": 2897,
      "Ġcoordin": 2898,
      "label": 2899,
      "ĠMay": 2900,
      "Ġconver": 2901,
      "Ġmode": 2902,
      "Ġauthor": 2903,
      "Ġhours": 2904,
      "Ġ(âĢľ": 2905,
      "ĠGen": 2906,
      "iction": 2907,
      "Ġestimate": 2908,
      "iting": 2909,
      "Ġresulting": 2910,
      "Ġinmates": 2911,
      "Ġfocus": 2912,
      "Ġvir": 2913,
      "Ġhep": 2914,
      "uter": 2915,
      "Ġeduc": 2916,
      "ĊĠĠĠĠĠĠĠĠĠĠĠ": 2917,
      "order": 2918,
      "Ġnational": 2919,
      "pi": 2920,
      "Ġexpect": 2921,
      "Ġoscill": 2922,
      "Ġelements": 2923,
      "Ġsyn": 2924,
      "Ġwr": 2925,
      "Ġbroad": 2926,
      "Ġ2003": 2927,
      "Ġtoward": 2928,
      "Ġsusp": 2929,
      "Ġeffici": 2930,
      "Ġrepl": 2931,
      "Ġblood": 2932,
      ".--": 2933,
      "Ġhamilton": 2934,
      "Ġqual": 2935,
      "Ġcomparison": 2936,
      "ify": 2937,
      "Ġfluct": 2938,
      "UN": 2939,
      "Ġinteractions": 2940,
      "ING": 2941,
      "Ġinduced": 2942,
      "Ġfluctu": 2943,
      "Ġindex": 2944,
      "pha": 2945,
      "Ġaut": 2946,
      "rad": 2947,
      "Ġrestric": 2948,
      "Ġquas": 2949,
      "Ġlack": 2950,
      "ino": 2951,
      "Ġbus": 2952,
      "Ġmid": 2953,
      "TR": 2954,
      "Ġenti": 2955,
      "Ġdone": 2956,
      "Ġsuggest": 2957,
      "ighb": 2958,
      "Ġrequires": 2959,
      "ĠNor": 2960,
      "pping": 2961,
      "Ġwidth": 2962,
      "Ġenviron": 2963,
      "ternal": 2964,
      "Ġmap": 2965,
      "Ġpreviously": 2966,
      "VID": 2967,
      "ecu": 2968,
      "Ġcosm": 2969,
      "ese": 2970,
      "isted": 2971,
      "Ġoperator": 2972,
      "vis": 2973,
      "Ġuncertain": 2974,
      "any": 2975,
      "Ġexpon": 2976,
      "cep": 2977,
      "ik": 2978,
      "Ġmajor": 2979,
      "Ġdiagram": 2980,
      "Ġproduction": 2981,
      "Ġnam": 2982,
      "Ġconcl": 2983,
      "ĠAttorney": 2984,
      "rime": 2985,
      "Ġmg": 2986,
      "Ġturn": 2987,
      "Ġcompliance": 2988,
      "Ġconcer": 2989,
      "Pl": 2990,
      "Ġsent": 2991,
      "Ġcalculations": 2992,
      "Ġwind": 2993,
      "Ġclearly": 2994,
      "istance": 2995,
      "tis": 2996,
      "Ġsays": 2997,
      "CE": 2998,
      "LE": 2999,
      "Ġhospital": 3000,
      "Ġnoise": 3001,
      "Ġtherap": 3002,
      "Ġenc": 3003,
      "ient": 3004,
      "Ġvariables": 3005,
      "Ġmill": 3006,
      "Ġ2001": 3007,
      "Ġgeomet": 3008,
      "ĠFOR": 3009,
      "Ġouts": 3010,
      "Ġtoo": 3011,
      "Ġregular": 3012,
      "Ġtogether": 3013,
      "Ġpercent": 3014,
      "Ġmental": 3015,
      "Ġ31": 3016,
      "2017": 3017,
      "Ġdirectly": 3018,
      "Ġimage": 3019,
      "Ġdefinition": 3020,
      "Ġoften": 3021,
      "ids": 3022,
      "plicit": 3023,
      "Ġtum": 3024,
      "Ġnature": 3025,
      "Ġdifferences": 3026,
      "Ġexpans": 3027,
      "Ġplaintiff": 3028,
      "ĠShe": 3029,
      "Ġvalid": 3030,
      "Ġpriv": 3031,
      "fig": 3032,
      "eration": 3033,
      "Ġsamples": 3034,
      "Ġfeatures": 3035,
      "Ġmove": 3036,
      "Ġrequest": 3037,
      "Ġhamiltonian": 3038,
      "lig": 3039,
      "ĠAmend": 3040,
      "Ġdependent": 3041,
      "Ġclos": 3042,
      "Ġla": 3043,
      "Ġschem": 3044,
      "Ġther": 3045,
      "ĠSc": 3046,
      "Ġseries": 3047,
      "Ġdegree": 3048,
      "Ġleading": 3049,
      "Ġweight": 3050,
      "Ã¿": 3051,
      "esis": 3052,
      "ously": 3053,
      "Ġconfig": 3054,
      "Ġproblems": 3055,
      "Ġstudied": 3056,
      "Ġaltern": 3057,
      "Ġ2002": 3058,
      "iles": 3059,
      "acity": 3060,
      "Ġdon": 3061,
      "Ġvot": 3062,
      "ze": 3063,
      "Ġorb": 3064,
      "izing": 3065,
      "Ġglob": 3066,
      "Ġemerg": 3067,
      "Ġparty": 3068,
      "uit": 3069,
      "Ġmark": 3070,
      "Ġneighb": 3071,
      "Ġdispl": 3072,
      "Ġthermal": 3073,
      "Ġangle": 3074,
      "Ġalmost": 3075,
      "Ġenh": 3076,
      "ale": 3077,
      "-\\": 3078,
      "Ġintegral": 3079,
      "Ġhearing": 3080,
      "Ġenough": 3081,
      "riter": 3082,
      "Ġalways": 3083,
      "ecutive": 3084,
      "uly": 3085,
      "Ġdama": 3086,
      "Ġprimary": 3087,
      "ĠWe": 3088,
      "ply": 3089,
      "ching": 3090,
      "ATION": 3091,
      "Ġapplication": 3092,
      "Ġreasonable": 3093,
      "ilib": 3094,
      "ĠJan": 3095,
      "Ġincreases": 3096,
      "Ġ2014": 3097,
      "Ġarrest": 3098,
      "Ġprocesses": 3099,
      "Ġissues": 3100,
      "Ġphoton": 3101,
      "Ġcust": 3102,
      "roph": 3103,
      "RE": 3104,
      "Ġplot": 3105,
      "opic": 3106,
      "Ġinvolved": 3107,
      "ĠSection": 3108,
      "Ġedge": 3109,
      "oe": 3110,
      "kes": 3111,
      "otic": 3112,
      "vere": 3113,
      "ĠSecretary": 3114,
      "Ġhydro": 3115,
      "Ġess": 3116,
      "ĠâĢĵ": 3117,
      "time": 3118,
      "âĢĵ": 3119,
      "Ġ#:": 3120,
      "Ġminimum": 3121,
      "omy": 3122,
      "Ġbran": 3123,
      "FF": 3124,
      "off": 3125,
      "ste": 3126,
      "ession": 3127,
      ".(": 3128,
      "set": 3129,
      "rial": 3130,
      "Ġ``(": 3131,
      "pose": 3132,
      "Ġlink": 3133,
      "Ġphen": 3134,
      "Ġvolume": 3135,
      "Ġcorrect": 3136,
      "ump": 3137,
      "Ġspati": 3138,
      "aries": 3139,
      "Ġproperty": 3140,
      "Ġdoma": 3141,
      "ones": 3142,
      "mance": 3143,
      "Ġalgorithm": 3144,
      "Ġparagraph": 3145,
      "Ġdistrict": 3146,
      "ĠDav": 3147,
      "aps": 3148,
      "sych": 3149,
      "Ġdevelopment": 3150,
      "del": 3151,
      "rons": 3152,
      "aren": 3153,
      "Ġneeded": 3154,
      "uary": 3155,
      "101": 3156,
      "Ġpain": 3157,
      "Ġ60": 3158,
      "ky": 3159,
      "width": 3160,
      "Ġimages": 3161,
      "Ġrequirements": 3162,
      "Ġinvari": 3163,
      "Ġcancer": 3164,
      "Ġradio": 3165,
      "Ġil": 3166,
      "ledge": 3167,
      "Ġservice": 3168,
      "Ġprocedures": 3169,
      "Ġmen": 3170,
      "Ġcat": 3171,
      "title": 3172,
      "We": 3173,
      "ih": 3174,
      "entially": 3175,
      "ĠMed": 3176,
      "Ġsoft": 3177,
      "Ġmaintain": 3178,
      "AM": 3179,
      "ackage": 3180,
      "Ġleads": 3181,
      "Ġhistory": 3182,
      "Ġloop": 3183,
      "Ġclusters": 3184,
      "Ġamplitude": 3185,
      "Ġelement": 3186,
      "Ġensure": 3187,
      "abilities": 3188,
      "tified": 3189,
      "...": 3190,
      "lor": 3191,
      "Ġindeed": 3192,
      "Ġcolor": 3193,
      "Ġdiss": 3194,
      "Ġsolid": 3195,
      "Ġ^": 3196,
      "Ġinflu": 3197,
      "fully": 3198,
      "Ġrap": 3199,
      "Ġgene": 3200,
      "Ġteam": 3201,
      "icial": 3202,
      "Ġattem": 3203,
      "icity": 3204,
      "Ġplas": 3205,
      "ĠZ": 3206,
      "}(": 3207,
      "Ġimmedi": 3208,
      "Ġcd": 3209,
      "Ġhtt": 3210,
      "2018": 3211,
      "ĠEm": 3212,
      "Ġapproximately": 3213,
      "Ġmoreover": 3214,
      "Ġluminosity": 3215,
      "Ġpractice": 3216,
      "Ġcore": 3217,
      "Ġexists": 3218,
      "Ġgoing": 3219,
      "Ġrelationship": 3220,
      "ched": 3221,
      "bar": 3222,
      "illi": 3223,
      "Ġextre": 3224,
      "cted": 3225,
      "angle": 3226,
      "times": 3227,
      "Ġemployees": 3228,
      "ference": 3229,
      "Ġoutside": 3230,
      "Ġgrowth": 3231,
      "Ġbul": 3232,
      "nonumber": 3233,
      "Ġneeds": 3234,
      "no": 3235,
      "ington": 3236,
      "Ġreports": 3237,
      "Ġacross": 3238,
      "Ġalleged": 3239,
      "ĠCol": 3240,
      "Ġ1998": 3241,
      "Ġmagnitude": 3242,
      "ki": 3243,
      "auss": 3244,
      "ĠMs": 3245,
      "xiv": 3246,
      "Ġgran": 3247,
      "rier": 3248,
      "Ġcriter": 3249,
      "US": 3250,
      "Ġinvestigation": 3251,
      "bed": 3252,
      "Ġimpact": 3253,
      "ilit": 3254,
      "Ġapply": 3255,
      "atives": 3256,
      "Ġgau": 3257,
      "ĠHealth": 3258,
      "Ġ1999": 3259,
      "Ġnumbers": 3260,
      "ĠJohn": 3261,
      "Ġng": 3262,
      "ĠBar": 3263,
      "iation": 3264,
      "asc": 3265,
      "Ġinterv": 3266,
      "2019": 3267,
      ",âĢĿ": 3268,
      "iforn": 3269,
      "PP": 3270,
      "tification": 3271,
      "org": 3272,
      "Ġexperiment": 3273,
      "Ġexpansion": 3274,
      "illed": 3275,
      "Ġobjects": 3276,
      ".âĢĻ": 3277,
      "Ġtrue": 3278,
      "Ġremains": 3279,
      "Ġmaking": 3280,
      "Ġinteresting": 3281,
      "Ġdeveloped": 3282,
      "Ġhapp": 3283,
      "pc": 3284,
      "enn": 3285,
      "Ġclassical": 3286,
      "ĠGeneral": 3287,
      "otrop": 3288,
      "mer": 3289,
      "Ġimplies": 3290,
      "ĠLaw": 3291,
      "bur": 3292,
      "ĠApr": 3293,
      "Ġinstead": 3294,
      "Ġsetting": 3295,
      "Ġhole": 3296,
      "DC": 3297,
      "ister": 3298,
      "Ġrecomm": 3299,
      "Ġtrial": 3300,
      "Ġlegal": 3301,
      "ĠSte": 3302,
      "jected": 3303,
      "ories": 3304,
      "Ġchain": 3305,
      "iform": 3306,
      "pite": 3307,
      "rium": 3308,
      "bra": 3309,
      "rel": 3310,
      "2007": 3311,
      "erate": 3312,
      "ras": 3313,
      "anced": 3314,
      "Ġfindings": 3315,
      "aged": 3316,
      "ifornia": 3317,
      "Ġderiv": 3318,
      "ean": 3319,
      "Ġcorresponds": 3320,
      "Ġmodes": 3321,
      "Ġtreated": 3322,
      "Ġ35": 3323,
      "Ġonce": 3324,
      "tivity": 3325,
      "rant": 3326,
      "Ġdenot": 3327,
      "Ġappears": 3328,
      "Ġgauss": 3329,
      "ony": 3330,
      "Ġpast": 3331,
      "Ġcurves": 3332,
      "Ġprotein": 3333,
      "bo": 3334,
      "Ġball": 3335,
      "ogen": 3336,
      "Ġexperiments": 3337,
      "Ġmeasurement": 3338,
      "Ġcand": 3339,
      "Ġdark": 3340,
      "ĠRule": 3341,
      "Ġcourse": 3342,
      "Ġpursuant": 3343,
      "ĠPres": 3344,
      "Ġformer": 3345,
      "Ġyour": 3346,
      "ĠIf": 3347,
      "ware": 3348,
      "Ġconv": 3349,
      "oles": 3350,
      "ĠJune": 3351,
      "augh": 3352,
      "}^{": 3353,
      "Ġisol": 3354,
      "Ġcontrast": 3355,
      "Ġareas": 3356,
      "Ġaxis": 3357,
      "Ġgenerally": 3358,
      "Ġdetected": 3359,
      "unc": 3360,
      "Ġhor": 3361,
      "ĠThere": 3362,
      "Ġreturn": 3363,
      "EF": 3364,
      "Ġbrief": 3365,
      "Ġcommit": 3366,
      "ĠCommission": 3367,
      "Ġrelease": 3368,
      "Ġ2017": 3369,
      "Ġentire": 3370,
      "Ġequilib": 3371,
      "ĠPh": 3372,
      "alpha": 3373,
      "isd": 3374,
      "Ġpanel": 3375,
      "uty": 3376,
      "Ġpolicies": 3377,
      "Ġenergies": 3378,
      "Ġadequ": 3379,
      "Ġfib": 3380,
      "Ġpict": 3381,
      "2006": 3382,
      "ĠReport": 3383,
      "itiz": 3384,
      "fs": 3385,
      "wh": 3386,
      "omb": 3387,
      "Ġml": 3388,
      "ectors": 3389,
      "Ġnoted": 3390,
      "ĠFederal": 3391,
      "Ġenforce": 3392,
      "Ġquar": 3393,
      "Ġothers": 3394,
      "Ġcontact": 3395,
      "Ġviolation": 3396,
      "Ġsimilarly": 3397,
      "Ġcountry": 3398,
      "ĠBo": 3399,
      "Ġresol": 3400,
      "IV": 3401,
      "ogene": 3402,
      "mail": 3403,
      "ising": 3404,
      "ancy": 3405,
      "Ġdetain": 3406,
      "Ġlonger": 3407,
      "Ġstatistical": 3408,
      "He": 3409,
      "Ġperformance": 3410,
      "ronic": 3411,
      "Ġdenote": 3412,
      "gation": 3413,
      "ĠCar": 3414,
      "ĠPol": 3415,
      "rown": 3416,
      "Ġprofile": 3417,
      "Ġdouble": 3418,
      "Ġphysics": 3419,
      "liminary": 3420,
      "igma": 3421,
      "ĊĠĠĠĠĠĠĠĠĠĠĠĠĠĠĠĠ": 3422,
      "Ġremain": 3423,
      "Ġer": 3424,
      "ĠMarch": 3425,
      "ĠDIS": 3426,
      "Ġrepe": 3427,
      "her": 3428,
      "Ġyoung": 3429,
      "achments": 3430,
      "ymmet": 3431,
      "Ġestimated": 3432,
      "Ġsufficient": 3433,
      "Ġsal": 3434,
      "Ġequivalent": 3435,
      "Ġsmo": 3436,
      "ĠSet": 3437,
      "elling": 3438,
      "Ġheav": 3439,
      "Ġattack": 3440,
      "Ġair": 3441,
      "eq": 3442,
      "Ġaway": 3443,
      "Ġregime": 3444,
      "ender": 3445,
      "Ġdescri": 3446,
      "arlier": 3447,
      "eful": 3448,
      "Ġcontains": 3449,
      "MP": 3450,
      "Ġelectro": 3451,
      "Ġtypical": 3452,
      "Ġinfin": 3453,
      "alf": 3454,
      "Ġcry": 3455,
      "Ġmasses": 3456,
      "Ġoriginal": 3457,
      "ĠLEAD": 3458,
      "Ġrecogn": 3459,
      "Ġangular": 3460,
      "Ġchoice": 3461,
      "Ġexplicit": 3462,
      "ĠMonitor": 3463,
      "do": 3464,
      "Ġotherwise": 3465,
      "Ġmes": 3466,
      "Ġgreater": 3467,
      "Ġneutrin": 3468,
      "Ġlist": 3469,
      "rary": 3470,
      "Ġcandid": 3471,
      "Ġreques": 3472,
      "Ġstudents": 3473,
      "Ġcalculation": 3474,
      "eren": 3475,
      "Ġword": 3476,
      "osen": 3477,
      "ael": 3478,
      "Ġspl": 3479,
      "aves": 3480,
      "Ġrespond": 3481,
      "Ġori": 3482,
      "Ġradiation": 3483,
      "ĠGover": 3484,
      "Ġwhite": 3485,
      "Ġfully": 3486,
      "Ġgauge": 3487,
      "Ġ1997": 3488,
      "Ġquark": 3489,
      "Ġproduct": 3490,
      "ham": 3491,
      "ympt": 3492,
      "delta": 3493,
      "lex": 3494,
      "Ġquality": 3495,
      "Ġox": 3496,
      "ney": 3497,
      "let": 3498,
      "ĠAmendment": 3499,
      "ĠCOVID": 3500,
      "arrow": 3501,
      "Ġsocial": 3502,
      ",'": 3503,
      "Ġjudgment": 3504,
      "rist": 3505,
      "Ġdifficult": 3506,
      "mann": 3507,
      "Ġbal": 3508,
      "Ġbright": 3509,
      "sec": 3510,
      "mag": 3511,
      "ATED": 3512,
      "RI": 3513,
      "phi": 3514,
      "Ġkine": 3515,
      "ĠAt": 3516,
      "ĠIs": 3517,
      "Ġsympt": 3518,
      "izes": 3519,
      "--------": 3520,
      "Ġtheoretical": 3521,
      "Ġyet": 3522,
      "Ġextended": 3523,
      "Ġtiss": 3524,
      "Ġkeep": 3525,
      "Ġwant": 3526,
      "Ġnuclear": 3527,
      "ĉĉĉĉ": 3528,
      "Ġsubsequ": 3529,
      "ĠCong": 3530,
      "Ġuniform": 3531,
      "Ġredshift": 3532,
      "ĠPre": 3533,
      "Ġprevent": 3534,
      "Ġdiscrimination": 3535,
      "Ġallows": 3536,
      "ĠAgreement": 3537,
      "Ġstress": 3538,
      "Ġpropor": 3539,
      "Ġfacility": 3540,
      "ĠAD": 3541,
      "Ġarxiv": 3542,
      "Ġcapacity": 3543,
      "actic": 3544,
      "ush": 3545,
      "Ġhous": 3546,
      "ustice": 3547,
      "Ġfav": 3548,
      "Ġpurpose": 3549,
      "Ġscheme": 3550,
      "Ġdepends": 3551,
      "Ġfailure": 3552,
      "Ġface": 3553,
      "Ġstructures": 3554,
      "Ġnatural": 3555,
      "ired": 3556,
      "ĠÂ£": 3557,
      "onic": 3558,
      "reet": 3559,
      "Ġcircum": 3560,
      "Ġinjury": 3561,
      "ele": 3562,
      "Ġcaused": 3563,
      "Ġdiab": 3564,
      "Ġarbit": 3565,
      "omorph": 3566,
      "ĠApril": 3567,
      "Ġavoid": 3568,
      "rees": 3569,
      "iver": 3570,
      "asons": 3571,
      "Ġserious": 3572,
      "Ġ1996": 3573,
      "ĠĊĉĉĉĉ": 3574,
      "Ġpsych": 3575,
      "Ġpropag": 3576,
      "Ġ2015": 3577,
      "Ġgenerated": 3578,
      "Ġ36": 3579,
      "Ġgaussian": 3580,
      "Ġformula": 3581,
      "Ġoverall": 3582,
      "Ġsets": 3583,
      "ĠOffice": 3584,
      "Ġwhole": 3585,
      "Ġmonitor": 3586,
      "Ġans": 3587,
      "war": 3588,
      "band": 3589,
      "Ġdescribe": 3590,
      "Ġproduced": 3591,
      "ĠHow": 3592,
      "ĠCalifornia": 3593,
      "Ġallowed": 3594,
      "Ġgrav": 3595,
      "HS": 3596,
      "law": 3597,
      "ened": 3598,
      "Ġverte": 3599,
      "Ġreduction": 3600,
      "Ġrule": 3601,
      "Ġofficer": 3602,
      "Ġabsorption": 3603,
      "Ġweeks": 3604,
      "Ġsimply": 3605,
      "Ġquantit": 3606,
      "Ġcond": 3607,
      "Ġagency": 3608,
      "Attachments": 3609,
      "Ġdust": 3610,
      "Ġcome": 3611,
      "titute": 3612,
      "Ġopport": 3613,
      "Ġidentify": 3614,
      "Ġreference": 3615,
      "ĠAM": 3616,
      "ats": 3617,
      "ĠFran": 3618,
      "Ġasympt": 3619,
      "ols": 3620,
      "Ġdispers": 3621,
      "ĠMem": 3622,
      "matic": 3623,
      "ĠBl": 3624,
      "alle": 3625,
      "isms": 3626,
      "URT": 3627,
      "iring": 3628,
      "Ġvariable": 3629,
      "Ġland": 3630,
      "inding": 3631,
      "mu": 3632,
      "Ġfurthermore": 3633,
      "Ġthink": 3634,
      "Ġtypes": 3635,
      "eless": 3636,
      "Ġstable": 3637,
      "Ġpersons": 3638,
      "Ġnm": 3639,
      "arily": 3640,
      "Ġmolecular": 3641,
      "Ġbuild": 3642,
      "att": 3643,
      "Ġexerc": 3644,
      "Ġmiss": 3645,
      "bl": 3646,
      "Ġfile": 3647,
      "Ġsupported": 3648,
      "Ġdetails": 3649,
      "Ġsecurity": 3650,
      "104": 3651,
      "Ġestablished": 3652,
      "Ġstage": 3653,
      "2014": 3654,
      "Ġearlier": 3655,
      "Ġmut": 3656,
      "Ġcurrently": 3657,
      "Ġcolum": 3658,
      "used": 3659,
      "ade": 3660,
      "Ġ32": 3661,
      "eles": 3662,
      "ĠCivil": 3663,
      "ening": 3664,
      "retion": 3665,
      "Ġscreen": 3666,
      "Ġdetection": 3667,
      "Ġcontinuous": 3668,
      "ĠReg": 3669,
      "reshold": 3670,
      "Ġtransport": 3671,
      "110": 3672,
      "Ġcomplic": 3673,
      "Ġpen": 3674,
      "\\\\": 3675,
      "Ġbusiness": 3676,
      "Ġactive": 3677,
      "Ġexpressed": 3678,
      "2016": 3679,
      "''": 3680,
      "Ġ>": 3681,
      "120": 3682,
      "Ġgap": 3683,
      "berg": 3684,
      "normal": 3685,
      "Ġmechanism": 3686,
      "Ġproportion": 3687,
      "Ġclosed": 3688,
      "Ġequilibrium": 3689,
      "ert": 3690,
      "Ġsat": 3691,
      "Ġri": 3692,
      "Ġspatial": 3693,
      "Ġtens": 3694,
      "Ġblock": 3695,
      "ĠJanuary": 3696,
      "Ġwhereas": 3697,
      "la": 3698,
      "Ġstrongly": 3699,
      "](": 3700,
      "Ġcontinue": 3701,
      "Ġdefendant": 3702,
      "Ġthick": 3703,
      "Ġdistributions": 3704,
      "uk": 3705,
      "ĠJuly": 3706,
      "Ġactions": 3707,
      "Ġcomplaint": 3708,
      "=\"": 3709,
      "rep": 3710,
      "usep": 3711,
      "Ġformal": 3712,
      "usepackage": 3713,
      "Ġrelig": 3714,
      "Ġobj": 3715,
      "osure": 3716,
      "ĠThey": 3717,
      "ques": 3718,
      "ĠID": 3719,
      "Ġsimulation": 3720,
      "ĠDire": 3721,
      "Ġsurvey": 3722,
      "Ġassumed": 3723,
      "Ġwal": 3724,
      "ĠRec": 3725,
      "Ġspe": 3726,
      "pecially": 3727,
      "urisd": 3728,
      "2015": 3729,
      "Ġrelatively": 3730,
      "Ġshape": 3731,
      "Ġbeam": 3732,
      "Ġmus": 3733,
      "Ġ90": 3734,
      "Ġargument": 3735,
      "ca": 3736,
      "pan": 3737,
      "Ġthreshold": 3738,
      "come": 3739,
      "Ġexch": 3740,
      "Ġscen": 3741,
      "Ġrapid": 3742,
      "111": 3743,
      "rative": 3744,
      "ĠSTAT": 3745,
      "oney": 3746,
      "Ġcosts": 3747,
      "Ġ45": 3748,
      "Ġselected": 3749,
      "Ġkey": 3750,
      "Ġ37": 3751,
      "Ġstatement": 3752,
      "Ġmeasures": 3753,
      "Ġworking": 3754,
      "itle": 3755,
      "Ġ~": 3756,
      "Ġsmooth": 3757,
      "ĠCOURT": 3758,
      "Ġjob": 3759,
      "Ġcorrection": 3760,
      "Ġ%": 3761,
      "OL": 3762,
      "MIN": 3763,
      "Ġsurv": 3764,
      "ĠPresident": 3765,
      "105": 3766,
      "ĠSept": 3767,
      "2008": 3768,
      "Ġplasma": 3769,
      "Ġobservation": 3770,
      "Ġprinci": 3771,
      "ung": 3772,
      "102": 3773,
      "Ġ33": 3774,
      "gery": 3775,
      "Ġlittle": 3776,
      "Ġreasons": 3777,
      "Ġfluctuations": 3778,
      "ĠEng": 3779,
      "rang": 3780,
      "Ġmakes": 3781,
      "Ġsevere": 3782,
      "Ġdetailed": 3783,
      "Ġespecially": 3784,
      "Ġsituation": 3785,
      "Ġuseful": 3786,
      "2013": 3787,
      "struct": 3788,
      "omas": 3789,
      "Ġca": 3790,
      "Ġdemonstrated": 3791,
      "Ġcomplain": 3792,
      "Ġbond": 3793,
      "Ġchemical": 3794,
      "Ġinside": 3795,
      "Ġorient": 3796,
      "gamma": 3797,
      "Ġfacilities": 3798,
      "Ġrevealed": 3799,
      "Ġstrateg": 3800,
      "Ġwin": 3801,
      "Ġcannot": 3802,
      ".\\": 3803,
      "}{\\": 3804,
      "Ġfunctional": 3805,
      "ublish": 3806,
      "Ġasp": 3807,
      "Ġscalar": 3808,
      "posed": 3809,
      "Ġglobal": 3810,
      "dle": 3811,
      "Ġslight": 3812,
      "Ġintern": 3813,
      "Ġcrim": 3814,
      "Ġpractices": 3815,
      "ĠĊĠĠĠĠĠĠĠĠĠĠĠĠĠĠĠĠ": 3816,
      "Ġemployment": 3817,
      "ĠDecree": 3818,
      "ications": 3819,
      "Ġdomain": 3820,
      "Ġabund": 3821,
      "Ġlocated": 3822,
      "}_{": 3823,
      "roduce": 3824,
      "ticle": 3825,
      "ĠComplaint": 3826,
      "omial": 3827,
      "erson": 3828,
      "-@": 3829,
      "ows": 3830,
      "endix": 3831,
      "Ġblue": 3832,
      "ambda": 3833,
      "Ġoperators": 3834,
      "Ġfall": 3835,
      "Ġaffect": 3836,
      "ctober": 3837,
      "RA": 3838,
      "ĠPageID": 3839,
      "Ġknowledge": 3840,
      "yond": 3841,
      "Ġrepresentation": 3842,
      "Ġmention": 3843,
      "103": 3844,
      "Ġscales": 3845,
      "2012": 3846,
      "Ġconducted": 3847,
      "Ġbegin": 3848,
      "Ġplaced": 3849,
      "2009": 3850,
      "Ġunits": 3851,
      "ĠSettlement": 3852,
      "ĠCirc": 3853,
      "Ġpattern": 3854,
      "ĠFirst": 3855,
      "abil": 3856,
      "fficients": 3857,
      "Ġtook": 3858,
      "Ġfinding": 3859,
      "+\\": 3860,
      "ians": 3861,
      "Ġwall": 3862,
      "2010": 3863,
      "Ġmor": 3864,
      "Ġchosen": 3865,
      "bb": 3866,
      "Ġrotation": 3867,
      "uro": 3868,
      "}^": 3869,
      "Ġclou": 3870,
      "Ġorbit": 3871,
      "ĠAmerican": 3872,
      "ani": 3873,
      "ashed": 3874,
      "oman": 3875,
      "pe": 3876,
      "omega": 3877,
      "Ġfailed": 3878,
      "Ġguid": 3879,
      "Ġquanti": 3880,
      "Ġexclud": 3881,
      "Ġprograms": 3882,
      "Ġcoefficients": 3883,
      "âĢ¦": 3884,
      "Ġ34": 3885,
      "dd": 3886,
      "Ġdenied": 3887,
      "Ġillust": 3888,
      "Ġitself": 3889,
      "Ġincludes": 3890,
      "ifically": 3891,
      "Ġforth": 3892,
      "Ġinmate": 3893,
      "ĠHar": 3894,
      "Ġprove": 3895,
      "Ġsimpl": 3896,
      "ises": 3897,
      "Ġentit": 3898,
      "Ġfollowed": 3899,
      "roll": 3900,
      "ront": 3901,
      "enced": 3902,
      "Ġability": 3903,
      "ashington": 3904,
      "ortion": 3905,
      "Ġindicate": 3906,
      "ards": 3907,
      "aster": 3908,
      "tially": 3909,
      "Ġreceive": 3910,
      "ding": 3911,
      "Ġhighly": 3912,
      "Ġphenomen": 3913,
      "2005": 3914,
      "Ġsafety": 3915,
      "Ġcontributions": 3916,
      "Ġscaling": 3917,
      "ica": 3918,
      "gl": 3919,
      "Ġindicated": 3920,
      "ĠAug": 3921,
      "Ġshowing": 3922,
      "Ġquite": 3923,
      "Ġsites": 3924,
      "Ġbos": 3925,
      "Ġfri": 3926,
      "Ġconserv": 3927,
      "back": 3928,
      "Ġscenari": 3929,
      "Ġsymmetric": 3930,
      "atric": 3931,
      "Ġ2016": 3932,
      "Ġbig": 3933,
      "Ġincl": 3934,
      "Ġalge": 3935,
      "Ġdescription": 3936,
      "Ġmanagement": 3937,
      "Ġexcept": 3938,
      "106": 3939,
      "Ġvertex": 3940,
      "ĠPe": 3941,
      "Ġ95": 3942,
      "Ġstay": 3943,
      "Ġparticularly": 3944,
      "Ġshock": 3945,
      "Defend": 3946,
      "Ġhost": 3947,
      "Ġvide": 3948,
      "END": 3949,
      "tify": 3950,
      "Ġmember": 3951,
      "Ġcharged": 3952,
      "Ġbeyond": 3953,
      "thern": 3954,
      "CS": 3955,
      "Ġfunda": 3956,
      "Ġlatter": 3957,
      "ĠCenter": 3958,
      "iral": 3959,
      "Ġsuggested": 3960,
      "Ġvic": 3961,
      "Ġincident": 3962,
      "ensities": 3963,
      "Ġinternal": 3964,
      "Ġofficials": 3965,
      "Ġdespite": 3966,
      "Ġvanish": 3967,
      "rt": 3968,
      "velength": 3969,
      "Ġactivities": 3970,
      "osing": 3971,
      "Ġfoot": 3972,
      "etes": 3973,
      "Ġexistence": 3974,
      "Ġdrug": 3975,
      "Ġmetric": 3976,
      "Ġforward": 3977,
      "Ġintroduced": 3978,
      "Ġngc": 3979,
      "ĠEn": 3980,
      "Ġappeal": 3981,
      "urop": 3982,
      "Ġentry": 3983,
      "Ġfeature": 3984,
      "Ġmanif": 3985,
      "Ġeducation": 3986,
      "Ġfamil": 3987,
      "mber": 3988,
      "Ġcontext": 3989,
      "Ġstated": 3990,
      "Ġcool": 3991,
      "Ġintensity": 3992,
      "Ġcomplet": 3993,
      "108": 3994,
      "oin": 3995,
      "ocy": 3996,
      "Ġsuit": 3997,
      "Ġsurgery": 3998,
      "rosc": 3999,
      "Ġtry": 4000,
      "Ġquestions": 4001,
      "ĠWilli": 4002,
      "Ġhot": 4003,
      "ĠSeptember": 4004,
      "Ġpure": 4005,
      "ls": 4006,
      "Ġextent": 4007,
      "107": 4008,
      "}_": 4009,
      "Ġmassive": 4010,
      "Ġrequirement": 4011,
      "rk": 4012,
      "Ġles": 4013,
      "Ġ1995": 4014,
      "Ġextra": 4015,
      "vious": 4016,
      "Ġerrors": 4017,
      "Ġmedium": 4018,
      "eline": 4019,
      "ĠDr": 4020,
      "orter": 4021,
      "Ġabsence": 4022,
      "itivity": 4023,
      "Ġ48": 4024,
      "urisdiction": 4025,
      "Ġsections": 4026,
      "ĠCongress": 4027,
      "Ġexplained": 4028,
      "Ġspeed": 4029,
      "Ġtherapy": 4030,
      "Ġpc": 4031,
      "lambda": 4032,
      "ensions": 4033,
      "Ġtemperatures": 4034,
      "Ġdismiss": 4035,
      "Ġgravit": 4036,
      "Ġproduce": 4037,
      "Ġwavelength": 4038,
      "Ġsummary": 4039,
      "ster": 4040,
      "ĠNotice": 4041,
      "ĠTo": 4042,
      "Ġinterpret": 4043,
      "ĠDe": 4044,
      "Ġcontract": 4045,
      "poses": 4046,
      "Ġcriteria": 4047,
      "Ġur": 4048,
      "________________": 4049,
      "laration": 4050,
      "ĠCircuit": 4051,
      "iff": 4052,
      "kt": 4053,
      "timal": 4054,
      "itudes": 4055,
      "aul": 4056,
      "cy": 4057,
      "Ġflat": 4058,
      "ĠDavid": 4059,
      "Ġthreat": 4060,
      "Ġelectrons": 4061,
      "Ġdeal": 4062,
      "ĠPolice": 4063,
      "Ġlas": 4064,
      "Ġtax": 4065,
      "tee": 4066,
      "109": 4067,
      "ICE": 4068,
      "Ġgreen": 4069,
      "112": 4070,
      "Ġsingular": 4071,
      "Ġproviding": 4072,
      "going": 4073,
      "Ġassuming": 4074,
      "ture": 4075,
      "ck": 4076,
      "Ġslow": 4077,
      "greg": 4078,
      "Ġoccurs": 4079,
      "Ġgev": 4080,
      "Ġexternal": 4081,
      "Ġsquare": 4082,
      "Ġexcess": 4083,
      "Ġconfirmed": 4084,
      "Ġwhy": 4085,
      "NN": 4086,
      "TS": 4087,
      "Ġresponsible": 4088,
      "IA": 4089,
      "Ġenvironment": 4090,
      "AND": 4091,
      "Ġbehavi": 4092,
      "Ġcontaining": 4093,
      "Ġbott": 4094,
      "Ġcamp": 4095,
      "ĠTitle": 4096,
      "Ġdiscussion": 4097,
      "Ġfra": 4098,
      "Ġsteps": 4099,
      "Ġeasily": 4100,
      "Ġbelieve": 4101,
      "Ġcompare": 4102,
      "uth": 4103,
      "ives": 4104,
      "Ġincor": 4105,
      "Ġrecords": 4106,
      "leg": 4107,
      "Ġconstitutional": 4108,
      "orneys": 4109,
      "2011": 4110,
      "Ġconnected": 4111,
      "Ġradial": 4112,
      "Ġpuls": 4113,
      "Ġtrack": 4114,
      "Ġapj": 4115,
      "Ġassumption": 4116,
      "resents": 4117,
      "Ġdelay": 4118,
      "ctor": 4119,
      "Ġholds": 4120,
      "This": 4121,
      "lin": 4122,
      "ĠServices": 4123,
      "Ġtakes": 4124,
      "Ġliter": 4125,
      "Ġic": 4126,
      "Ġconsidering": 4127,
      "Ġsched": 4128,
      "Ġreduce": 4129,
      "Ġdecrease": 4130,
      "Ġauthority": 4131,
      "Ġinvariant": 4132,
      "Ġactually": 4133,
      "Ġinterval": 4134,
      "Ġple": 4135,
      "ĠSchool": 4136,
      "ocket": 4137,
      "Ġbehalf": 4138,
      "Ġsymptoms": 4139,
      "Ġcryst": 4140,
      "itness": 4141,
      "115": 4142,
      "Ġarri": 4143,
      "wer": 4144,
      "ey": 4145,
      "stein": 4146,
      "ites": 4147,
      "Ġatoms": 4148,
      "Ġdynamical": 4149,
      "TER": 4150,
      "Ġusually": 4151,
      "ĠDecember": 4152,
      "Ġpolarization": 4153,
      "emic": 4154,
      "ford": 4155,
      "formed": 4156,
      "Ġbox": 4157,
      "Ġrepresents": 4158,
      "Ġanalog": 4159,
      "Ġcarried": 4160,
      "ager": 4161,
      "Ġshift": 4162,
      "Ġjet": 4163,
      "Ġconcentration": 4164,
      "Ġcalculate": 4165,
      "Ġproceedings": 4166,
      "elves": 4167,
      "Ġstop": 4168,
      "Ġorders": 4169,
      "Ġquad": 4170,
      "Ġey": 4171,
      "ĠDoc": 4172,
      "Ġmeaning": 4173,
      "OS": 4174,
      "cond": 4175,
      "Ġ38": 4176,
      "wide": 4177,
      "Ġsd": 4178,
      "Ġprep": 4179,
      "Ġunique": 4180,
      "UD": 4181,
      "osite": 4182,
      "Ġaffected": 4183,
      "Ġmetall": 4184,
      "CF": 4185,
      "ĠNational": 4186,
      "Ġfast": 4187,
      "113": 4188,
      "Ġcombination": 4189,
      "angu": 4190,
      "Ġparen": 4191,
      "Ġsubjects": 4192,
      "Ġreaction": 4193,
      "}}\\": 4194,
      "gov": 4195,
      "Ġcounter": 4196,
      "Ġlear": 4197,
      "Ġuniversity": 4198,
      "ĠAf": 4199,
      "ounts": 4200,
      "Ġ...": 4201,
      "Ġpublish": 4202,
      "phas": 4203,
      "Ġsuggests": 4204,
      "Ġdiagnosis": 4205,
      "ICT": 4206,
      "ounsel": 4207,
      "rence": 4208,
      "reed": 4209,
      "}$": 4210,
      "Ġhoriz": 4211,
      "Ġbasic": 4212,
      "erman": 4213,
      "Ġforms": 4214,
      "Ġnan": 4215,
      "IR": 4216,
      "sigma": 4217,
      "ĠNOTICE": 4218,
      "new": 4219,
      "ruary": 4220,
      "116": 4221,
      "Ġ80": 4222,
      "ĠWashington": 4223,
      "racted": 4224,
      "**": 4225,
      "Ġobject": 4226,
      "Ġsplit": 4227,
      "Ġpoor": 4228,
      "Ġthin": 4229,
      "Ġversion": 4230,
      "Ġfood": 4231,
      "Ġharm": 4232,
      "position": 4233,
      "Ġindicates": 4234,
      "Ġinjunction": 4235,
      "Ġsexual": 4236,
      "ĠAugust": 4237,
      "Ġlate": 4238,
      "Ġdifferential": 4239,
      "Ġoptimal": 4240,
      "Ġeqs": 4241,
      "125": 4242,
      "ovember": 4243,
      "Ġkind": 4244,
      "ĠInter": 4245,
      "Ġps": 4246,
      "Ġcontinuum": 4247,
      "ĠMichael": 4248,
      "Ġtumor": 4249,
      "Ġvary": 4250,
      "Ġjail": 4251,
      "ION": 4252,
      "Ġremaining": 4253,
      "nes": 4254,
      "ĠFeb": 4255,
      "jection": 4256,
      "Ġlimits": 4257,
      "illing": 4258,
      "Ġfundamental": 4259,
      "Ġsci": 4260,
      "ĠOctober": 4261,
      "olar": 4262,
      "aneous": 4263,
      "114": 4264,
      "ĠMin": 4265,
      "Ġsolar": 4266,
      "Ġsystema": 4267,
      "ĠAcc": 4268,
      "Ġspecies": 4269,
      "Ġtun": 4270,
      "Ġcircumst": 4271,
      "Ġpoli": 4272,
      "Ġcheck": 4273,
      "Ġcontroll": 4274,
      "Ġeigenval": 4275,
      "Ġdead": 4276,
      ")-": 4277,
      "Ġattach": 4278,
      "Ġcomputed": 4279,
      "Ġbinding": 4280,
      "rices": 4281,
      "Ġinsul": 4282,
      "Ġapplications": 4283,
      "ĠStat": 4284,
      "LAIN": 4285,
      "Ġinvestigate": 4286,
      "Ġlaws": 4287,
      "CO": 4288,
      "119": 4289,
      "ressed": 4290,
      "Ġexpand": 4291,
      "Ġresonance": 4292,
      "ĠBoard": 4293,
      "Ġiii": 4294,
      "Ġlayer": 4295,
      "Ġpossibility": 4296,
      "ĠSy": 4297,
      "Ġresour": 4298,
      "Ġapparent": 4299,
      "gations": 4300,
      "Ġnearly": 4301,
      "Ġdistin": 4302,
      "itz": 4303,
      "Ġneighbor": 4304,
      "iversity": 4305,
      "Ġexchange": 4306,
      "Ġpurposes": 4307,
      "Ġtempor": 4308,
      "overed": 4309,
      "ided": 4310,
      "Ġcoh": 4311,
      "Ġyields": 4312,
      "Ġissued": 4313,
      "itigation": 4314,
      "Ġinterview": 4315,
      "Ġaccretion": 4316,
      "ĠIS": 4317,
      "Ġell": 4318,
      "AG": 4319,
      "amer": 4320,
      "ĠGu": 4321,
      "ĠThat": 4322,
      "ae": 4323,
      "117": 4324,
      "ĠMag": 4325,
      "Ġ70": 4326,
      "Ġseven": 4327,
      "Ġ39": 4328,
      "Ġwide": 4329,
      "Ġaccept": 4330,
      "ĠSouth": 4331,
      "allel": 4332,
      "Ġintr": 4333,
      "123": 4334,
      "Ġmanner": 4335,
      "Ġ|": 4336,
      "Ġframe": 4337,
      "Ġmillion": 4338,
      "130": 4339,
      "Ġevaluation": 4340,
      "cil": 4341,
      "Ġgoal": 4342,
      "Ġdetermination": 4343,
      "TRICT": 4344,
      "St": 4345,
      "Ġtissue": 4346,
      "Ġinner": 4347,
      "EM": 4348,
      "Ġenforcement": 4349,
      "Ġcolumn": 4350,
      "ĠResp": 4351,
      "Ġthroughout": 4352,
      "Ġbenefits": 4353,
      "Ġpositions": 4354,
      "Ġcivil": 4355,
      "Ġtowards": 4356,
      "riz": 4357,
      "range": 4358,
      "Ġagree": 4359,
      "state": 4360,
      "Ġimmigration": 4361,
      "Ġunc": 4362,
      "Ġcompletely": 4363,
      "Ġexercise": 4364,
      "Ġtechnique": 4365,
      "Ġten": 4366,
      "UM": 4367,
      "ĠOpp": 4368,
      "Ġheavy": 4369,
      "Ġinfection": 4370,
      "ague": 4371,
      "Ġcoefficient": 4372,
      "Ġbin": 4373,
      "ometric": 4374,
      "Ġmath": 4375,
      "Ġcompact": 4376,
      "Ġcarry": 4377,
      "CH": 4378,
      "aily": 4379,
      "ĠStreet": 4380,
      "Ġpoly": 4381,
      "ĠRober": 4382,
      "Ġpolyn": 4383,
      "118": 4384,
      "sts": 4385,
      "Ġsubstantial": 4386,
      "Ġconstruction": 4387,
      "Ġtor": 4388,
      "beta": 4389,
      "Ġperform": 4390,
      "Ġnight": 4391,
      "ĠConsent": 4392,
      "Ġentrop": 4393,
      "Ġasked": 4394,
      "Ġarbitrary": 4395,
      "Ġleave": 4396,
      "Ġms": 4397,
      "rew": 4398,
      "Ġcode": 4399,
      "[\\": 4400,
      "erk": 4401,
      "Ġconfiguration": 4402,
      "Ġhouse": 4403,
      "ĠCorre": 4404,
      "Ġselection": 4405,
      "Ġgalactic": 4406,
      "Ġcorrections": 4407,
      "ĠNovember": 4408,
      "Ġlabel": 4409,
      "Ġinput": 4410,
      "ivision": 4411,
      "Ġdashed": 4412,
      "Ġcontained": 4413,
      "ĠCase": 4414,
      "char": 4415,
      "ĠSan": 4416,
      "Ġdocuments": 4417,
      "gn": 4418,
      "Ġminutes": 4419,
      "izations": 4420,
      "Ġaccel": 4421,
      "\",": 4422,
      "Ġsubmitted": 4423,
      "Ġmajority": 4424,
      "Ġsense": 4425,
      "Ġexperience": 4426,
      "Ġprotoc": 4427,
      "otyp": 4428,
      "Ġfigures": 4429,
      "Ġear": 4430,
      "Ġdiabetes": 4431,
      "Ġconstraints": 4432,
      "Ġalgebra": 4433,
      "Ġimmediately": 4434,
      "ĠRequ": 4435,
      "Ġrelati": 4436,
      "Ġminimal": 4437,
      "Ġprisoners": 4438,
      "Ġlocation": 4439,
      "BC": 4440,
      "Ġfermi": 4441,
      "oti": 4442,
      "Ġcav": 4443,
      "nder": 4444,
      "ĠII": 4445,
      "Ġecon": 4446,
      "Ġtal": 4447,
      "Ġorbital": 4448,
      "gram": 4449,
      "Ġshell": 4450,
      "Ġunivers": 4451,
      "122": 4452,
      "ĠPRO": 4453,
      "ĠTex": 4454,
      "Ġestimates": 4455,
      "Ġaim": 4456,
      "bi": 4457,
      "Ġobvious": 4458,
      "Ġevaluated": 4459,
      "Ġpr": 4460,
      "ĠWal": 4461,
      "Ġtas": 4462,
      "Ġneutrino": 4463,
      "Ġalternative": 4464,
      "Ġallegations": 4465,
      "Ġvertices": 4466,
      "Ġconcern": 4467,
      "Ġpolynomial": 4468,
      "ipl": 4469,
      "linear": 4470,
      "sum": 4471,
      "Ġadjust": 4472,
      "Ġprovision": 4473,
      "ream": 4474,
      "ĠDISTRICT": 4475,
      "Ġordered": 4476,
      "Ġrelax": 4477,
      "Ġcorrelations": 4478,
      "ĠCont": 4479,
      "Ġunderstanding": 4480,
      "Ġfluid": 4481,
      "ardi": 4482,
      "121": 4483,
      "Ġparts": 4484,
      "Ġprogress": 4485,
      "Ġpreliminary": 4486,
      "Ġexactly": 4487,
      "Ġconclusion": 4488,
      "Ġseparate": 4489,
      "Ġ1994": 4490,
      "Ġpredicted": 4491,
      "ifts": 4492,
      "EOC": 4493,
      "ona": 4494,
      "Ġspread": 4495,
      "Ġdiscrimin": 4496,
      "www": 4497,
      "emb": 4498,
      "Ġones": 4499,
      "uish": 4500,
      "2004": 4501,
      "Ġslightly": 4502,
      "Ġbottom": 4503,
      "uge": 4504,
      "128": 4505,
      "Ġcombined": 4506,
      "ĠWith": 4507,
      "Ġdeb": 4508,
      "reme": 4509,
      "Ġdiscovery": 4510,
      "Ġspecifically": 4511,
      "ĠGe": 4512,
      "Ġrules": 4513,
      "Ġoccup": 4514,
      "Ġvariation": 4515,
      "Ġfair": 4516,
      "male": 4517,
      ")^": 4518,
      "roup": 4519,
      "Ġelig": 4520,
      "Ġlabor": 4521,
      "001": 4522,
      "ares": 4523,
      "Ġconclude": 4524,
      "Ġnarrow": 4525,
      "Ġobserve": 4526,
      "Ġste": 4527,
      "lation": 4528,
      "ĊĠĠĠĠĠĠĠĠĠĠĠĠĠĠĠĠĠĠĠ": 4529,
      "Ġmer": 4530,
      "Ġdetect": 4531,
      "Ġwrite": 4532,
      "Ġrang": 4533,
      "itch": 4534,
      "Ġinstance": 4535,
      "ana": 4536,
      "ĠTrans": 4537,
      "hz": 4538,
      "magnetic": 4539,
      "Ġthought": 4540,
      "Ġrecon": 4541,
      "Ġhorizon": 4542,
      "Ġdispersion": 4543,
      "Ġrecall": 4544,
      "_.": 4545,
      "atch": 4546,
      "Ġpairs": 4547,
      "Ġelectronic": 4548,
      "cript": 4549,
      "CC": 4550,
      "Ġadequate": 4551,
      "ĠDis": 4552,
      "ĠSe": 4553,
      "hibits": 4554,
      "ĠJames": 4555,
      "olds": 4556,
      "Ġseek": 4557,
      "ĠTra": 4558,
      "Ġrise": 4559,
      "Ġutil": 4560,
      "Ġreleased": 4561,
      "Ġmac": 4562,
      "Ġseems": 4563,
      "Ġchoose": 4564,
      "Ġroom": 4565,
      "ilon": 4566,
      "Ġdm": 4567,
      "ĠEd": 4568,
      "Ġaward": 4569,
      "Ġbinary": 4570,
      "usions": 4571,
      "Ġlangu": 4572,
      "Ġinfluence": 4573,
      "Ġtests": 4574,
      "Ġali": 4575,
      "Ġct": 4576,
      "ĠSup": 4577,
      "get": 4578,
      "Ġhalo": 4579,
      "Ġpd": 4580,
      "represent": 4581,
      "Ġfees": 4582,
      "Ġnode": 4583,
      "Ġsuffici": 4584,
      "Ġsil": 4585,
      "Ġeight": 4586,
      ".@": 4587,
      "124": 4588,
      "âĢ¦âĢ¦": 4589,
      "Ġmother": 4590,
      "Ġremed": 4591,
      "Ġsettlement": 4592,
      "know": 4593,
      "Ġdot": 4594,
      "Ġliterature": 4595,
      "Ġinflam": 4596,
      "Ġstability": 4597,
      "Ġproposition": 4598,
      "Ġinvestigated": 4599,
      "ĠAdminist": 4600,
      "LY": 4601,
      "Ġauthors": 4602,
      "Ġul": 4603,
      "Ġtur": 4604,
      "Ġscore": 4605,
      "Ġresidents": 4606,
      "rho": 4607,
      "Ġcult": 4608,
      "Ġoperation": 4609,
      "Ġantib": 4610,
      "Ġmodified": 4611,
      "gence": 4612,
      "Ġgain": 4613,
      "Ġmand": 4614,
      "Ġproject": 4615,
      "vision": 4616,
      "ider": 4617,
      "131": 4618,
      "Ġsubsection": 4619,
      "ĠSpec": 4620,
      "Ġdisp": 4621,
      "ĠUniversity": 4622,
      "ascular": 4623,
      "Ġstation": 4624,
      "yle": 4625,
      "iggs": 4626,
      "rations": 4627,
      "Ġfire": 4628,
      "Ġreferred": 4629,
      "ĠBe": 4630,
      "Ġmaterials": 4631,
      "Ġabsol": 4632,
      "150": 4633,
      "ibly": 4634,
      "hic": 4635,
      "\".": 4636,
      "Ġvideo": 4637,
      "ception": 4638,
      "Ġwords": 4639,
      "Ġdegen": 4640,
      "Ġpartial": 4641,
      "127": 4642,
      "ancial": 4643,
      "Ġperiodic": 4644,
      "Ġ2018": 4645,
      "Ġvisit": 4646,
      "Ġanimal": 4647,
      "ĠRights": 4648,
      "Ġult": 4649,
      "ĠPM": 4650,
      "_\\": 4651,
      "Ġpersonal": 4652,
      "ptions": 4653,
      "Ġasymmet": 4654,
      "Ġmorph": 4655,
      "Ġassessment": 4656,
      "mediate": 4657,
      "ĠDecl": 4658,
      "Ġassociation": 4659,
      "Ġpi": 4660,
      "Ġscience": 4661,
      "Ġcop": 4662,
      "Ġparents": 4663,
      "Ġparallel": 4664,
      "Ġdensities": 4665,
      "Ġheart": 4666,
      "ography": 4667,
      "IG": 4668,
      "Ġgravitational": 4669,
      "126": 4670,
      "Ġtravel": 4671,
      "Ġlett": 4672,
      "ĠFebruary": 4673,
      "Ġoptim": 4674,
      "Ġprivate": 4675,
      "Ġ41": 4676,
      "Ġsensitivity": 4677,
      "Ġhttp": 4678,
      "ĠHowever": 4679,
      "Ġfemale": 4680,
      "orand": 4681,
      "Ġjoint": 4682,
      "sq": 4683,
      "lde": 4684,
      "ĠService": 4685,
      "Ġindi": 4686,
      "hood": 4687,
      "Ġlag": 4688,
      "Ġstarting": 4689,
      "132": 4690,
      "ogeneous": 4691,
      "Ġrob": 4692,
      "Ġorth": 4693,
      "eff": 4694,
      "Ġjurisdiction": 4695,
      "ĠOb": 4696,
      "uck": 4697,
      "Ġhousing": 4698,
      "Ġappe": 4699,
      "Ġneutral": 4700,
      "ondon": 4701,
      "uma": 4702,
      "inion": 4703,
      "CA": 4704,
      "Ġneutron": 4705,
      "Ġvs": 4706,
      "Ġ.................................................................": 4707,
      "ips": 4708,
      "eps": 4709,
      "Ġsupercond": 4710,
      "Ġkm": 4711,
      "Ġfront": 4712,
      "Ġtensor": 4713,
      "140": 4714,
      "Ġreligious": 4715,
      "mations": 4716,
      "theless": 4717,
      "ball": 4718,
      "Ġuniverse": 4719,
      "uled": 4720,
      "Ġcitiz": 4721,
      "Ġcoupled": 4722,
      "uting": 4723,
      "where": 4724,
      "bert": 4725,
      "Ġelectric": 4726,
      "Ġcardi": 4727,
      "Ġhypoth": 4728,
      "vial": 4729,
      "129": 4730,
      "Ġimaging": 4731,
      "ximal": 4732,
      "ĠJustice": 4733,
      "Ġbulk": 4734,
      "Ġagents": 4735,
      "Ġsufficiently": 4736,
      "Ġparticipants": 4737,
      "Ġfreed": 4738,
      "cin": 4739,
      "Ġname": 4740,
      "OP": 4741,
      "Ġgot": 4742,
      "Ġ46": 4743,
      "Ġ43": 4744,
      "Ġtechniques": 4745,
      "Ġinvolving": 4746,
      "Ġcompleted": 4747,
      "okes": 4748,
      "ulating": 4749,
      "133": 4750,
      "ĠCounsel": 4751,
      "Ġextrem": 4752,
      "Ġinequ": 4753,
      "ively": 4754,
      "quad": 4755,
      "usive": 4756,
      "Ġdeep": 4757,
      "Ġcriminal": 4758,
      "ĠGovernment": 4759,
      "Ġmev": 4760,
      "Ġentropy": 4761,
      "Ġcharacteristics": 4762,
      "inement": 4763,
      "ĠWest": 4764,
      "mathbf": 4765,
      "ĠFour": 4766,
      "ĠUN": 4767,
      "134": 4768,
      "tr": 4769,
      "Ġedges": 4770,
      "earing": 4771,
      "ata": 4772,
      "ORT": 4773,
      "Ġmas": 4774,
      "umb": 4775,
      "Ġnamely": 4776,
      "Ġbase": 4777,
      "Ġcontinued": 4778,
      "Ġdiagonal": 4779,
      "Ġincorpor": 4780,
      "Ġdecom": 4781,
      "Ġtypically": 4782,
      "135": 4783,
      "ĠCode": 4784,
      "ONS": 4785,
      "seud": 4786,
      "Ġcame": 4787,
      "Ġextension": 4788,
      "Ġunderlying": 4789,
      "Ġdiffusion": 4790,
      "unt": 4791,
      "Ġ44": 4792,
      "Ġrepresented": 4793,
      "Ġtherm": 4794,
      "with": 4795,
      "herent": 4796,
      "Ġtransformation": 4797,
      "Ġsatisfy": 4798,
      "Ġefforts": 4799,
      "inguish": 4800,
      "Ġnonlinear": 4801,
      "bol": 4802,
      "ken": 4803,
      "Ġiden": 4804,
      "Ġaccuracy": 4805,
      "Ġintegration": 4806,
      "des": 4807,
      "mp": 4808,
      "Ġrough": 4809,
      "ĠNot": 4810,
      "bility": 4811,
      "Ġplans": 4812,
      "osc": 4813,
      "ĠTER": 4814,
      "amin": 4815,
      "ĠSupreme": 4816,
      "Ġdu": 4817,
      "Ġmentioned": 4818,
      "Ġstraight": 4819,
      "ĠSigned": 4820,
      "Ġrecommend": 4821,
      "Ġmoney": 4822,
      "head": 4823,
      "acing": 4824,
      "Ġheight": 4825,
      "Ġcountries": 4826,
      "Ġoffice": 4827,
      "Ġminim": 4828,
      "Ġjus": 4829,
      "ĠSum": 4830,
      "enses": 4831,
      "Ġanalyzed": 4832,
      "Ġdemonstrate": 4833,
      "iling": 4834,
      "phone": 4835,
      "Ġappendix": 4836,
      "vistic": 4837,
      "Ġcreated": 4838,
      "Ġgir": 4839,
      "Ġvacu": 4840,
      "Ġinteract": 4841,
      "Ġaud": 4842,
      "Ġdro": 4843,
      "Ġprofiles": 4844,
      "Ġreviewed": 4845,
      "Ġpun": 4846,
      "Ġintra": 4847,
      "ĠRE": 4848,
      "ocal": 4849,
      "Ġrich": 4850,
      "Ġsupervis": 4851,
      "Ġ56": 4852,
      "Ġhighest": 4853,
      "vari": 4854,
      "Ġsuppose": 4855,
      "Ġattorney": 4856,
      "Ġbrain": 4857,
      "Â§": 4858,
      "Ġcourts": 4859,
      "Ġapproved": 4860,
      "ĠComm": 4861,
      "ework": 4862,
      "UL": 4863,
      "pa": 4864,
      "theta": 4865,
      "136": 4866,
      "Ġban": 4867,
      "Ġmis": 4868,
      "text": 4869,
      "Ġimplementation": 4870,
      "^{-": 4871,
      "ĠNorth": 4872,
      "ĠTr": 4873,
      "Ġ55": 4874,
      "202": 4875,
      "ĠFed": 4876,
      "Ġachieved": 4877,
      "ĠâĢ¢": 4878,
      "ĠDirector": 4879,
      "Ġpseud": 4880,
      "Ġduration": 4881,
      "Ġstim": 4882,
      "ĠEEOC": 4883,
      "faces": 4884,
      "Ġnone": 4885,
      "Ġseparation": 4886,
      "Ġring": 4887,
      ",,": 4888,
      "Ġcomes": 4889,
      "Ġdisplay": 4890,
      "Ġ47": 4891,
      "Ġcity": 4892,
      "Ġenter": 4893,
      "Ġdecl": 4894,
      "Ġacknow": 4895,
      "otropic": 4896,
      "Ġinternational": 4897,
      "Ġprotect": 4898,
      "tish": 4899,
      "ĠTw": 4900,
      "Ġrare": 4901,
      "Ġevol": 4902,
      "Ġstanding": 4903,
      "Ġevaluate": 4904,
      "Ġbring": 4905,
      "Ġopportunity": 4906,
      "Ġphases": 4907,
      "Ġgame": 4908,
      "Ġthems": 4909,
      "Ġtitle": 4910,
      "Ġpp": 4911,
      "Ġsecondary": 4912,
      "ills": 4913,
      "Ġeth": 4914,
      "Ġthemselves": 4915,
      "Ġphotons": 4916,
      "ought": 4917,
      "Ġactual": 4918,
      "Ġmal": 4919,
      "Ġuncertainty": 4920,
      "uli": 4921,
      "Ġmaps": 4922,
      "Ġled": 4923,
      "Ġdiver": 4924,
      "Ġdisorder": 4925,
      "Ġprofession": 4926,
      "tes": 4927,
      "Ġattempt": 4928,
      "Ġchallenge": 4929,
      ".[": 4930,
      "Ġtab": 4931,
      "ĠDO": 4932,
      "Ġrace": 4933,
      "Ġgeometry": 4934,
      "fect": 4935,
      "orandum": 4936,
      "Ġversus": 4937,
      "Ġframework": 4938,
      "Ġinters": 4939,
      "Ġintroduce": 4940,
      "ĠRev": 4941,
      "Ġtele": 4942,
      "Ġtoday": 4943,
      "ĠĊĠĠĠĠĠĠĠĠĠĠĠĠĠĠĠĠĠĠĠĠĠĠĠ": 4944,
      "ĠTexas": 4945,
      "Ġformed": 4946,
      "Ġlin": 4947,
      "Ġimproved": 4948,
      "Ġdual": 4949,
      "struction": 4950,
      "Ġprovisions": 4951,
      "Ġdip": 4952,
      "inations": 4953,
      "Ġinser": 4954,
      "Ġalone": 4955,
      "aking": 4956,
      "ĠCompliance": 4957,
      "box": 4958,
      "Ġintermediate": 4959,
      "Ġtransverse": 4960,
      "Ġmoving": 4961,
      "ĠPlan": 4962,
      "Ġemergency": 4963,
      "Ġ1993": 4964,
      "Ġfavor": 4965,
      "Ġcycle": 4966,
      "Ġprinciple": 4967,
      "Ġefficiency": 4968,
      "ba": 4969,
      "137": 4970,
      "Ġcustody": 4971,
      "Ġremoved": 4972,
      "oses": 4973,
      "Ġaccurate": 4974,
      "Ġpicture": 4975,
      "Ġexperi": 4976,
      "Ġtext": 4977,
      "141": 4978,
      "hy": 4979,
      "ĠUK": 4980,
      "Ġpublished": 4981,
      "Ġouter": 4982,
      "Ġconnection": 4983,
      "Ġbir": 4984,
      "Ġfrequencies": 4985,
      "ĠDef": 4986,
      "Ġachieve": 4987,
      "Ġimmun": 4988,
      "ĠPart": 4989,
      "bran": 4990,
      "class": 4991,
      "Ġreally": 4992,
      "nov": 4993,
      "Ġ49": 4994,
      "vi": 4995,
      "Ġessential": 4996,
      "Ġremark": 4997,
      "Ġamended": 4998,
      "Ġlanguage": 4999,
      "rol": 5000,
      "138": 5001,
      "ĠEl": 5002,
      "Ġwitness": 5003,
      "Ġletter": 5004,
      "Ġgranted": 5005,
      "Ġdest": 5006,
      "Ġdna": 5007,
      "Ġ54": 5008,
      "Ġcondens": 5009,
      "Ġfeed": 5010,
      "Ġlie": 5011,
      "Ġadministration": 5012,
      "Ġapproaches": 5013,
      "Ġmir": 5014,
      "ĠSub": 5015,
      "Ġsky": 5016,
      "Ġmonitoring": 5017,
      "Ġcharges": 5018,
      "Ġaccord": 5019,
      "Ġmetal": 5020,
      ",^": 5021,
      "Ġdepth": 5022,
      "mith": 5023,
      "tilde": 5024,
      "iber": 5025,
      "rect": 5026,
      "Ġstring": 5027,
      "Ġanis": 5028,
      "Ġ75": 5029,
      "Ġfamilies": 5030,
      "Ġexisting": 5031,
      "Ġfer": 5032,
      "oting": 5033,
      "Ġellip": 5034,
      "RAN": 5035,
      "Ġstandards": 5036,
      "ny": 5037,
      "Ġinstr": 5038,
      "ĠOne": 5039,
      "nu": 5040,
      "istrate": 5041,
      "Ġsensitive": 5042,
      "icate": 5043,
      "Ġmess": 5044,
      "Ġcircumstances": 5045,
      "Ġdepending": 5046,
      "Ġratios": 5047,
      "Ġsupple": 5048,
      "pts": 5049,
      "Ġacqu": 5050,
      "ĠConstitution": 5051,
      "Ġscenario": 5052,
      "Ġquantities": 5053,
      "Ġcharacterized": 5054,
      "erior": 5055,
      "fact": 5056,
      "ros": 5057,
      "Ġcompany": 5058,
      "Ġcollabor": 5059,
      "raw": 5060,
      "Ġcf": 5061,
      "Ġmedia": 5062,
      "ili": 5063,
      "Ġconcerns": 5064,
      "ĠRich": 5065,
      "ipal": 5066,
      "Ġcoordinates": 5067,
      "Ġrepeated": 5068,
      "ĠYou": 5069,
      "Ġcompens": 5070,
      "Ġheat": 5071,
      "Ġexposure": 5072,
      "Ġhiggs": 5073,
      "Ġnodes": 5074,
      "ery": 5075,
      "ocks": 5076,
      "139": 5077,
      "ĠSp": 5078,
      "represented": 5079,
      "Ġinfra": 5080,
      "Ġliqu": 5081,
      "Ġwent": 5082,
      "ida": 5083,
      "MS": 5084,
      "ners": 5085,
      "Ġvisual": 5086,
      "ĠBri": 5087,
      "aging": 5088,
      "Ġconference": 5089,
      "yr": 5090,
      "Ġexceed": 5091,
      "Ġunless": 5092,
      "entif": 5093,
      "Ġinvolve": 5094,
      "ĠNO": 5095,
      "Ġdwar": 5096,
      "Ġdecreases": 5097,
      "Ġbias": 5098,
      "Ġlost": 5099,
      "Ġemployee": 5100,
      "UT": 5101,
      "Ġacid": 5102,
      "Ġsumma": 5103,
      "ĠTERMIN": 5104,
      "Ġproportional": 5105,
      "ĠMod": 5106,
      "Ġattention": 5107,
      "Ġmn": 5108,
      "iant": 5109,
      "Ġstatute": 5110,
      "Ġapplicable": 5111,
      "Ġneuro": 5112,
      "Ġgradi": 5113,
      "Ġaf": 5114,
      "Ġ65": 5115,
      "ĠAssoci": 5116,
      "Ġupd": 5117,
      "PA": 5118,
      "145": 5119,
      "ĠLL": 5120,
      "ĠWhen": 5121,
      "142": 5122,
      "Ġcatal": 5123,
      "Ġatomic": 5124,
      "Ġadopted": 5125,
      "Ġiv": 5126,
      "ĠEmploy": 5127,
      "144": 5128,
      "ĠJudgment": 5129,
      "teen": 5130,
      "Ġdistinct": 5131,
      "rought": 5132,
      "Ġsatisfies": 5133,
      "Ġliving": 5134,
      "operative": 5135,
      "Ġtrig": 5136,
      "ATE": 5137,
      "ĠProposed": 5138,
      "Ġaccom": 5139,
      "Ġwaves": 5140,
      "ded": 5141,
      "ditional": 5142,
      "Ġmale": 5143,
      "Ġunf": 5144,
      "istant": 5145,
      "Ġtree": 5146,
      "Ġtesting": 5147,
      "Ġremoval": 5148,
      "qual": 5149,
      "action": 5150,
      "Ġdenotes": 5151,
      "Ġtrend": 5152,
      "Ġentered": 5153,
      "151": 5154,
      "Ġdesigned": 5155,
      "Ġinterpretation": 5156,
      "143": 5157,
      "ĠAC": 5158,
      "Ġmatrices": 5159,
      "Ġconsent": 5160,
      "Ġwoman": 5161,
      "Ġtransmission": 5162,
      "ille": 5163,
      "Ġasymptotic": 5164,
      "Ġcontent": 5165,
      "aving": 5166,
      "Ġfreedom": 5167,
      "Ġhem": 5168,
      "ĠTERMINATED": 5169,
      "Ġadvant": 5170,
      "Ġvictim": 5171,
      ".([": 5172,
      "Ġsubsequent": 5173,
      "Ġconsists": 5174,
      "Ġexamples": 5175,
      "Ġscreening": 5176,
      "Ġmice": 5177,
      "Ġkev": 5178,
      "Ġeasy": 5179,
      "Ġperturbation": 5180,
      "Ġvacuum": 5181,
      "Ġtransitions": 5182,
      "Ġdimensions": 5183,
      "ett": 5184,
      "Ġfitting": 5185,
      "rand": 5186,
      "Ġspectrosc": 5187,
      "room": 5188,
      "Ġfeel": 5189,
      "orld": 5190,
      "Ġburden": 5191,
      "Ġinvestigations": 5192,
      "Ġoccurred": 5193,
      "Ġsubt": 5194,
      "But": 5195,
      "well": 5196,
      "ĠFac": 5197,
      "mc": 5198,
      "partial": 5199,
      "ĠThese": 5200,
      "aign": 5201,
      "Ġbelong": 5202,
      "ĠImm": 5203,
      "160": 5204,
      "Ġlargest": 5205,
      "Ġintegrated": 5206,
      "Ġmixing": 5207,
      "ĠâĢľ[": 5208,
      "Ġassign": 5209,
      "146": 5210,
      "'re": 5211,
      "Ġdetention": 5212,
      "ube": 5213,
      "Ġmatch": 5214,
      "Ġlowest": 5215,
      "Ġreli": 5216,
      "Ġrelativistic": 5217,
      "ij": 5218,
      "Ġseason": 5219,
      "Ġcyt": 5220,
      "On": 5221,
      "Ġforces": 5222,
      "ĠPer": 5223,
      "ighted": 5224,
      "Ġresources": 5225,
      "Ġgranting": 5226,
      "Ġclasses": 5227,
      "zation": 5228,
      "Ġsf": 5229,
      "Ġglu": 5230,
      "Ġbone": 5231,
      "Ġbands": 5232,
      "As": 5233,
      "Ġexamination": 5234,
      "Ġuv": 5235,
      "152": 5236,
      "ĠDet": 5237,
      "Ġnetworks": 5238,
      "tively": 5239,
      "Ġcompute": 5240,
      "elle": 5241,
      "pted": 5242,
      "{{\\": 5243,
      "Ġinfinite": 5244,
      "etary": 5245,
      "Ġunderg": 5246,
      "Ġnamed": 5247,
      "Ġatm": 5248,
      "Ġchronic": 5249,
      "Ġelection": 5250,
      "Ġbehind": 5251,
      "ĠÂ·": 5252,
      "Ġcoinc": 5253,
      "mathcal": 5254,
      "Ġemployed": 5255,
      "Ġasser": 5256,
      "Ġconstit": 5257,
      "Ġconvention": 5258,
      "nson": 5259,
      "Ġdiscrete": 5260,
      "omal": 5261,
      "Ġelim": 5262,
      "Ġregist": 5263,
      "Ġdied": 5264,
      "Ġidentical": 5265,
      "ĊĠĠĠ": 5266,
      "ategor": 5267,
      "No": 5268,
      "anger": 5269,
      "Ġpolym": 5270,
      "ĠAfric": 5271,
      "Ġtail": 5272,
      "148": 5273,
      "Ġago": 5274,
      "space": 5275,
      "Ġassistance": 5276,
      "Ġdose": 5277,
      "ITED": 5278,
      "Ġenhance": 5279,
      "'.": 5280,
      "Ġ2019": 5281,
      "Ġfacts": 5282,
      "known": 5283,
      "Ġcoordinate": 5284,
      "ĠExecutive": 5285,
      "Ġatom": 5286,
      "oster": 5287,
      "Ġmerg": 5288,
      "Ġseem": 5289,
      "Plaintiffs": 5290,
      "Ġcompound": 5291,
      "ĠAng": 5292,
      "ĠX": 5293,
      "ults": 5294,
      "Ġproducts": 5295,
      "Ġmilit": 5296,
      "ĠProt": 5297,
      "ka": 5298,
      "Ġoverl": 5299,
      "Ġexcit": 5300,
      "PS": 5301,
      "Ġlive": 5302,
      "Ġserum": 5303,
      "ĠAccording": 5304,
      "Ġsampl": 5305,
      "Ġstatistics": 5306,
      "147": 5307,
      "Ġbounded": 5308,
      "Ġfinancial": 5309,
      "Ġpredict": 5310,
      "Ġspher": 5311,
      "crib": 5312,
      "Ġcalib": 5313,
      "Ġstarted": 5314,
      "Ġoutcome": 5315,
      "rump": 5316,
      "Ġcoverage": 5317,
      "Ġidentity": 5318,
      "Ġdamages": 5319,
      "Ġconsequence": 5320,
      "Ġlaser": 5321,
      "Ex": 5322,
      "unctive": 5323,
      "Ġdistinguish": 5324,
      "149": 5325,
      "Ġ52": 5326,
      "¿½": 5327,
      "ï¿½": 5328,
      "Ġpack": 5329,
      "ilt": 5330,
      "Ġreporting": 5331,
      "ĠSecurity": 5332,
      "Ġunli": 5333,
      "Ġteach": 5334,
      "Ġmechanisms": 5335,
      "Ġtermin": 5336,
      "Ġexcl": 5337,
      "Ġexec": 5338,
      "Ġ53": 5339,
      "Ġapplying": 5340,
      "Ġconj": 5341,
      "ished": 5342,
      "ĠAc": 5343,
      "ault": 5344,
      "tau": 5345,
      "Ġroot": 5346,
      "oura": 5347,
      "Ġinitially": 5348,
      "osphere": 5349,
      "Ġmc": 5350,
      ",-": 5351,
      "2003": 5352,
      "Ġgravity": 5353,
      "Ġrecept": 5354,
      "Ġfinds": 5355,
      "Ġdrugs": 5356,
      "erences": 5357,
      "Ġderive": 5358,
      "Ġcreate": 5359,
      "By": 5360,
      "ecause": 5361,
      "158": 5362,
      "ĠComp": 5363,
      "Ġdemand": 5364,
      "abe": 5365,
      "Ġ1992": 5366,
      "Ġ00": 5367,
      "Ġimportance": 5368,
      "Ġsystematic": 5369,
      "Ġconsideration": 5370,
      "Ġconcerning": 5371,
      "Ġclean": 5372,
      "Ġtraject": 5373,
      "Ġonto": 5374,
      "ĠSupport": 5375,
      "Ġbrought": 5376,
      "Ġdil": 5377,
      "Ġpopulations": 5378,
      "ĠDeclaration": 5379,
      "Ġschools": 5380,
      "Ġyouth": 5381,
      "Ġrac": 5382,
      "ands": 5383,
      "Page": 5384,
      "Ġdegrees": 5385,
      "Ġdetector": 5386,
      "aur": 5387,
      "oring": 5388,
      "Ġcred": 5389,
      "Ġtested": 5390,
      "Ġhop": 5391,
      "ratic": 5392,
      "Ġquasi": 5393,
      "Ġdivid": 5394,
      "Ġconvers": 5395,
      "ĠCer": 5396,
      "Ġunlaw": 5397,
      "uling": 5398,
      "ĠMiss": 5399,
      "VE": 5400,
      "ĠLondon": 5401,
      "Ch": 5402,
      "Ġbehaviour": 5403,
      "Ġ101": 5404,
      "Ġly": 5405,
      ")@": 5406,
      "ĠAfter": 5407,
      "Ġchannels": 5408,
      "155": 5409,
      "Ġbook": 5410,
      "Ġcavity": 5411,
      "Ġexcitation": 5412,
      "Ġded": 5413,
      "bon": 5414,
      "ĠRobert": 5415,
      "exp": 5416,
      "Ġworkers": 5417,
      "Ġconven": 5418,
      "Ġlip": 5419,
      "Ġproteins": 5420,
      "Ġclassification": 5421,
      "Ġanalyses": 5422,
      "ĠIII": 5423,
      "153": 5424,
      "Ġthm": 5425,
      "Ġbenefit": 5426,
      "Ġsemi": 5427,
      "Ġgluc": 5428,
      "based": 5429,
      "ĠSecond": 5430,
      "Ġdominated": 5431,
      "Ġidea": 5432,
      "Ġadministrative": 5433,
      "ĠProgram": 5434,
      "Ġdoing": 5435,
      "Ġsurround": 5436,
      "Ġpregn": 5437,
      "Ġdr": 5438,
      "ĠJail": 5439,
      "Ġdir": 5440,
      "odynam": 5441,
      "Ġcanc": 5442,
      "MM": 5443,
      "apse": 5444,
      "uls": 5445,
      "Ġworks": 5446,
      "anted": 5447,
      "cription": 5448,
      "ĠSTATES": 5449,
      "Ġinterests": 5450,
      "Ġmeeting": 5451,
      "Ġdirected": 5452,
      "Ġhol": 5453,
      "Ġpow": 5454,
      "Ġenj": 5455,
      "rog": 5456,
      "Am": 5457,
      "field": 5458,
      "Ġ58": 5459,
      "ike": 5460,
      "Ġ99": 5461,
      "Ġpolitical": 5462,
      "rev": 5463,
      "Ġassigned": 5464,
      "ĠVII": 5465,
      "po": 5466,
      "Â¶": 5467,
      "Ġisolated": 5468,
      "Ġincom": 5469,
      "Ġshot": 5470,
      "Ġdepartment": 5471,
      "Ġrow": 5472,
      "Ġmolecules": 5473,
      "Ġrequested": 5474,
      "Ġlens": 5475,
      "Ġcompan": 5476,
      "OH": 5477,
      "Ġsle": 5478,
      "acement": 5479,
      "Ġfat": 5480,
      "ĠPR": 5481,
      "154": 5482,
      "Ġacts": 5483,
      "156": 5484,
      "rical": 5485,
      "ha": 5486,
      "elines": 5487,
      "Ġcopy": 5488,
      "Ġusual": 5489,
      "Ġpulse": 5490,
      "ographic": 5491,
      "Ġstudent": 5492,
      "Ġcs": 5493,
      "Ġbary": 5494,
      "urance": 5495,
      "ounced": 5496,
      "Ġcorrelated": 5497,
      "Ġhd": 5498,
      "ĠMagistrate": 5499,
      "Ġgenes": 5500,
      "Ġcomparable": 5501,
      "Ġsphere": 5502,
      "Ġmur": 5503,
      "zing": 5504,
      "pir": 5505,
      "ĠWL": 5506,
      "Ġintervention": 5507,
      "Ġcurv": 5508,
      "157": 5509,
      "venue": 5510,
      "Ġconsum": 5511,
      "Ġbaseline": 5512,
      "Ġrenormal": 5513,
      "elesc": 5514,
      "Ġchec": 5515,
      "Ġdistributed": 5516,
      "Ġgeneration": 5517,
      "Ġprobably": 5518,
      "Ġbirth": 5519,
      "Ġstrict": 5520,
      "Ġuses": 5521,
      "acted": 5522,
      "Ġthings": 5523,
      "Ġ57": 5524,
      "AB": 5525,
      "Ġcloud": 5526,
      "Ġembed": 5527,
      "ĠHouse": 5528,
      "Ġpredictions": 5529,
      "Ġlitigation": 5530,
      "Ġmainly": 5531,
      "Ġprol": 5532,
      "Ġabsolute": 5533,
      "gi": 5534,
      "Ġreached": 5535,
      "Ġoral": 5536,
      "Ġadap": 5537,
      "Ġcollisions": 5538,
      "Ġcauses": 5539,
      "Ġmort": 5540,
      "ITY": 5541,
      "âĢĿ)": 5542,
      "Ġfou": 5543,
      "Ġsan": 5544,
      "ĠĊĠ": 5545,
      "Ġabuse": 5546,
      "Ġsoci": 5547,
      "Ġdatab": 5548,
      "170": 5549,
      "Ġdaily": 5550,
      "Ġtelesc": 5551,
      "Ġextend": 5552,
      "Ġcollected": 5553,
      "Ġlot": 5554,
      "ortex": 5555,
      "Ġmaximal": 5556,
      "Ġidentification": 5557,
      "Ġvariations": 5558,
      "ifications": 5559,
      "Ġsimult": 5560,
      "ude": 5561,
      "Ġcollection": 5562,
      "Ġregulations": 5563,
      "Ġinfrared": 5564,
      "ado": 5565,
      "Ġliquid": 5566,
      "Ġlisted": 5567,
      "Ġsatisfied": 5568,
      "Ġcas": 5569,
      "lective": 5570,
      "Ġinhibit": 5571,
      "gf": 5572,
      "igan": 5573,
      "gical": 5574,
      "Ġcategor": 5575,
      "ĠChief": 5576,
      "Ġconstraint": 5577,
      "Ġpersonnel": 5578,
      "Ġvote": 5579,
      "rants": 5580,
      "Ġturb": 5581,
      "Ġadding": 5582,
      "ĠEngland": 5583,
      "Ġcosmological": 5584,
      "Ġvehic": 5585,
      "ĠEST": 5586,
      "tension": 5587,
      "Ġ51": 5588,
      "Ġinverse": 5589,
      "onald": 5590,
      "Ġminor": 5591,
      "Ġclub": 5592,
      "Ġbelief": 5593,
      "riage": 5594,
      "LI": 5595,
      "Ġintrins": 5596,
      "illion": 5597,
      "ĠEduc": 5598,
      "arc": 5599,
      "pd": 5600,
      "reh": 5601,
      "Ġvertical": 5602,
      "182": 5603,
      "Ġreflect": 5604,
      "Ġvectors": 5605,
      "ffic": 5606,
      "Ġmembran": 5607,
      "ĠProced": 5608,
      "Ġcooling": 5609,
      "Ġpaid": 5610,
      "There": 5611,
      "ĠMor": 5612,
      "iatric": 5613,
      "ĠTe": 5614,
      "Ġcontribute": 5615,
      "Ġabsent": 5616,
      "Ġho": 5617,
      "Ġquantity": 5618,
      "ĠREP": 5619,
      "Ġdecreased": 5620,
      "Ġcampaign": 5621,
      "159": 5622,
      "Ġ1991": 5623,
      "ĠRel": 5624,
      "Ġpap": 5625,
      "Ġdifferenti": 5626,
      "utory": 5627,
      "ĠSen": 5628,
      "Ġ59": 5629,
      "Ġexplicitly": 5630,
      "Ġfir": 5631,
      "Ġinterven": 5632,
      "Ġentitled": 5633,
      "after": 5634,
      "Ġnuclei": 5635,
      "ARD": 5636,
      "Ġplate": 5637,
      "Ġaware": 5638,
      "Ġdevice": 5639,
      "Ġserved": 5640,
      "ĠâĪĴ": 5641,
      "Ġever": 5642,
      "Ġtend": 5643,
      "ăă": 5644,
      "Ġexhibit": 5645,
      "ĠPolic": 5646,
      "mi": 5647,
      "comes": 5648,
      "Ġdys": 5649,
      "ara": 5650,
      "Ġunderst": 5651,
      "Ġmedi": 5652,
      "Ġimplemented": 5653,
      "ĠThomas": 5654,
      "Ġanswer": 5655,
      "Ġproton": 5656,
      "Ġbegan": 5657,
      "Ġtrivial": 5658,
      "error": 5659,
      "Ġcollision": 5660,
      "Ġpix": 5661,
      "Ġagn": 5662,
      "180": 5663,
      "Ġimprovement": 5664,
      "odies": 5665,
      "matory": 5666,
      "Ġ1990": 5667,
      "ridge": 5668,
      "rey": 5669,
      "Ġinterpre": 5670,
      "Ġvariety": 5671,
      "ĠChrist": 5672,
      "Ġuncertainties": 5673,
      "Ġter": 5674,
      "Ġce": 5675,
      "Ġdig": 5676,
      "Ġperman": 5677,
      "Ġvit": 5678,
      "ĠSmith": 5679,
      "Ġsigned": 5680,
      "ĠOffic": 5681,
      "Ġ300": 5682,
      "ĠCH": 5683,
      "urations": 5684,
      "onor": 5685,
      "Ġprotection": 5686,
      "2000": 5687,
      "Ġpetition": 5688,
      "Ġhit": 5689,
      "Ġeligible": 5690,
      "ades": 5691,
      "161": 5692,
      "206": 5693,
      "Plaintiff": 5694,
      "function": 5695,
      "entric": 5696,
      "Ġfr": 5697,
      "Ġsun": 5698,
      "Ġnucl": 5699,
      "Ġexponential": 5700,
      "Ġscan": 5701,
      "Ġbed": 5702,
      "]\\": 5703,
      "Ġserve": 5704,
      "ometry": 5705,
      "Ġkinetic": 5706,
      "ontin": 5707,
      "Ġconfinement": 5708,
      "Ġlept": 5709,
      "Ġgiving": 5710,
      "elih": 5711,
      "162": 5712,
      "elihood": 5713,
      "uel": 5714,
      "Ġprepar": 5715,
      "ĠSher": 5716,
      "ymph": 5717,
      "Wh": 5718,
      "uries": 5719,
      "Ġgeneralized": 5720,
      "165": 5721,
      "ĠHis": 5722,
      "ET": 5723,
      "ĠInt": 5724,
      "ĠAL": 5725,
      "Ġpatter": 5726,
      "icted": 5727,
      "col": 5728,
      "psi": 5729,
      "Ġopposite": 5730,
      "ĠIns": 5731,
      "ĠWorld": 5732,
      "163": 5733,
      "Ġaccordance": 5734,
      "Ġslope": 5735,
      "Ġcandidates": 5736,
      "WH": 5737,
      "Ġoperations": 5738,
      "Ġproperly": 5739,
      "Ġadmitted": 5740,
      "Ġonline": 5741,
      "Ġmiddle": 5742,
      "Ġattached": 5743,
      "Ġlic": 5744,
      "Ġarguments": 5745,
      "Ġesc": 5746,
      "Ġmotiv": 5747,
      "ĠICE": 5748,
      "ĠSpecial": 5749,
      "mathrm": 5750,
      "imension": 5751,
      "ĠAb": 5752,
      "Ġdiscipl": 5753,
      "Ġmetab": 5754,
      "Ġdominant": 5755,
      "ĠDisc": 5756,
      "Ġherein": 5757,
      "Ġillness": 5758,
      "isl": 5759,
      "Ġconstruct": 5760,
      "Ġenhanced": 5761,
      "Ġson": 5762,
      "Ġfunds": 5763,
      "Ġstrategy": 5764,
      "Ġdetermining": 5765,
      "istent": 5766,
      "Ġcp": 5767,
      "Ġabundance": 5768,
      "Filed": 5769,
      "166": 5770,
      "vered": 5771,
      "167": 5772,
      "Ġsubg": 5773,
      "500": 5774,
      "ï¬": 5775,
      "Ġsomething": 5776,
      "Ġvirus": 5777,
      "ading": 5778,
      "Ġfermion": 5779,
      "ĠAmerica": 5780,
      "related": 5781,
      "Ġtransform": 5782,
      "Ġ72": 5783,
      "Ġreceiving": 5784,
      "Ġcomparing": 5785,
      "Ġprotocol": 5786,
      "Ġharmon": 5787,
      "164": 5788,
      "Ġnurs": 5789,
      "array": 5790,
      "iding": 5791,
      "Ġviolations": 5792,
      "Ġker": 5793,
      "Ġow": 5794,
      "empt": 5795,
      "'ve": 5796,
      "Ġpreval": 5797,
      "idential": 5798,
      "SA": 5799,
      "Ġ1983": 5800,
      "Ġconstants": 5801,
      "Ġfiling": 5802,
      "'m": 5803,
      "book": 5804,
      "Ct": 5805,
      "ez": 5806,
      "Ġorientation": 5807,
      "elled": 5808,
      "Ġpatterns": 5809,
      "ĠIntern": 5810,
      "ima": 5811,
      "Ġtrac": 5812,
      "ĠEurop": 5813,
      "rote": 5814,
      "Ġargue": 5815,
      "Id": 5816,
      "awa": 5817,
      "Ġqcd": 5818,
      "gu": 5819,
      "Ġpeaks": 5820,
      "Ġemit": 5821,
      "Ġemphas": 5822,
      "Ġdraw": 5823,
      "Ġdiamet": 5824,
      "Ġcentre": 5825,
      "Ġmicrosc": 5826,
      "Ġsubmit": 5827,
      "Ġvirt": 5828,
      "Ġcontrolled": 5829,
      "ĠAff": 5830,
      "Ġinsulin": 5831,
      "Ġattorneys": 5832,
      "Ġrequiring": 5833,
      "ĠClerk": 5834,
      "BER": 5835,
      "Ġindicating": 5836,
      "Ġbuilding": 5837,
      "urrent": 5838,
      "ĠAmended": 5839,
      "Ġamplitudes": 5840,
      "Ġ64": 5841,
      "Ġparent": 5842,
      "Ġideal": 5843,
      "Ġunderstood": 5844,
      "Ġcommunication": 5845,
      "OU": 5846,
      "ĠPublic": 5847,
      "Ġdeviation": 5848,
      "ĠConference": 5849,
      "ini": 5850,
      "Ġresistance": 5851,
      "ommod": 5852,
      "Ġperfect": 5853,
      "Ġbecame": 5854,
      "Ġmixed": 5855,
      "Ġunable": 5856,
      "Ġign": 5857,
      "Ġlymph": 5858,
      "Ġagreed": 5859,
      "168": 5860,
      "Ġexplan": 5861,
      "Ġhi": 5862,
      "ĠECF": 5863,
      "169": 5864,
      "Ġcouple": 5865,
      "ancing": 5866,
      "ĠAust": 5867,
      "ĠPetition": 5868,
      "Ġrequests": 5869,
      "mod": 5870,
      "phys": 5871,
      "Ġns": 5872,
      "ĠLeg": 5873,
      "Ġsurfaces": 5874,
      "Ġfa": 5875,
      "Ġquick": 5876,
      "Ġrecip": 5877,
      "upp": 5878,
      "undred": 5879,
      "Ġfel": 5880,
      "Ġdiseases": 5881,
      "oke": 5882,
      "Ġdriven": 5883,
      "Ġdifficul": 5884,
      "Ġmetallicity": 5885,
      "175": 5886,
      "Ġdamage": 5887,
      "Com": 5888,
      "Ġaddressed": 5889,
      "Ġmotions": 5890,
      "uff": 5891,
      "ĠEmail": 5892,
      "Ġprosec": 5893,
      "Ġnormalized": 5894,
      "Ġboard": 5895,
      "ĠCoun": 5896,
      "kins": 5897,
      "Ġcomputer": 5898,
      "::": 5899,
      "Ġhttps": 5900,
      "~~~~": 5901,
      "ART": 5902,
      "idents": 5903,
      "App": 5904,
      "br": 5905,
      "Ġresolved": 5906,
      "Ġ(\"": 5907,
      "ĠMore": 5908,
      "Ġcomments": 5909,
      "Ġprim": 5910,
      "Ġextremely": 5911,
      "isation": 5912,
      "Ġ68": 5913,
      "Ġrepresentative": 5914,
      "Ġ120": 5915,
      "ĠDate": 5916,
      "Ġcovered": 5917,
      "Ġretain": 5918,
      "ago": 5919,
      "Ġarm": 5920,
      "Ġderivative": 5921,
      "ucial": 5922,
      "Ġcontrac": 5923,
      "mentary": 5924,
      "ĠRichard": 5925,
      "Ġdisord": 5926,
      "ĠSuper": 5927,
      "Defendants": 5928,
      "kin": 5929,
      "Ġdescribes": 5930,
      "Ġmot": 5931,
      "Ġphysic": 5932,
      "Ġneglig": 5933,
      "ĠMo": 5934,
      "ĠTrump": 5935,
      "Ġwon": 5936,
      "rot": 5937,
      "onduct": 5938,
      "Ġprepared": 5939,
      "Ġbalance": 5940,
      "Ġrevers": 5941,
      "rophys": 5942,
      "Ġfits": 5943,
      "fe": 5944,
      "Ġinequality": 5945,
      "Ġcurvature": 5946,
      "hs": 5947,
      "Ġlikelihood": 5948,
      "Ġconstructed": 5949,
      "Ġtechnology": 5950,
      "comp": 5951,
      "Ġcosmic": 5952,
      "Ġapproval": 5953,
      "Ġround": 5954,
      "gr": 5955,
      "ĠMart": 5956,
      "Ġoutput": 5957,
      "ellow": 5958,
      "Ġliver": 5959,
      "ĠSuite": 5960,
      "Ġcoming": 5961,
      "Ġmach": 5962,
      "cm": 5963,
      "Ġbeginning": 5964,
      "ĠUnder": 5965,
      "Ġcandidate": 5966,
      "aneously": 5967,
      "Ġopinion": 5968,
      "ĠGl": 5969,
      "Ġmathema": 5970,
      "ĠMark": 5971,
      "Ġjudge": 5972,
      "Ġgraphs": 5973,
      "pm": 5974,
      "Ġrelaxation": 5975,
      "ained": 5976,
      "that": 5977,
      "KH": 5978,
      "Ġattrib": 5979,
      "Ġoutcomes": 5980,
      "Ġvelocities": 5981,
      "Ġqualit": 5982,
      "Ġcod": 5983,
      "Ġhub": 5984,
      "Ġinsp": 5985,
      "Ġsurvival": 5986,
      "Ġefficient": 5987,
      "ients": 5988,
      "Ġshar": 5989,
      "Ġunlawful": 5990,
      "Ġomitted": 5991,
      "Ġlooking": 5992,
      "Ġdistances": 5993,
      "Ġplotted": 5994,
      "If": 5995,
      "Ġexpressions": 5996,
      "171": 5997,
      "Ġdiagrams": 5998,
      "omer": 5999,
      "eng": 6000,
      "ada": 6001,
      "Ġturbul": 6002,
      "Ġwid": 6003,
      "Ġmagne": 6004,
      "Ġirre": 6005,
      "jud": 6006,
      "Ġdecisions": 6007,
      "ĠWil": 6008,
      "suit": 6009,
      "cles": 6010,
      "Ġnucleus": 6011,
      "Ġconvergence": 6012,
      "ĠChar": 6013,
      "Ġprocessing": 6014,
      "Ġsaw": 6015,
      "arant": 6016,
      "Ġoffer": 6017,
      "............": 6018,
      "ria": 6019,
      "Ġentangle": 6020,
      "Ġeffectively": 6021,
      "aughter": 6022,
      "Ġforeign": 6023,
      "Ġinstability": 6024,
      "2002": 6025,
      "Ġskin": 6026,
      "Ġspherical": 6027,
      "Ġheard": 6028,
      "Ġcolle": 6029,
      "za": 6030,
      "Ġelimin": 6031,
      "Ġbelieved": 6032,
      "Ġharass": 6033,
      "Ġstatistically": 6034,
      "Ġsurgical": 6035,
      "riev": 6036,
      "ĠResponse": 6037,
      "172": 6038,
      "Ġseeking": 6039,
      "^\\": 6040,
      "Ġprobe": 6041,
      "173": 6042,
      "Ġplus": 6043,
      "Ġshap": 6044,
      "Ġtopological": 6045,
      "Ġrout": 6046,
      "Ġunknown": 6047,
      "Ġdisapp": 6048,
      "Ġcold": 6049,
      "Ġlaboratory": 6050,
      "ĠJose": 6051,
      "erred": 6052,
      "ĠBy": 6053,
      "Ġactivation": 6054,
      "Ġconfigurations": 6055,
      "Un": 6056,
      "Ġessentially": 6057,
      "Ġrecorded": 6058,
      "Ġdoub": 6059,
      "mittee": 6060,
      "Ġchanged": 6061,
      "Ġtransl": 6062,
      "Ġorganization": 6063,
      "atur": 6064,
      "nec": 6065,
      "Ġfract": 6066,
      "Ġarrested": 6067,
      "2001": 6068,
      "Ġdischar": 6069,
      "Ġflo": 6070,
      "plicity": 6071,
      "ategory": 6072,
      "Ġaccommod": 6073,
      "Ġexcited": 6074,
      "Ġconclusions": 6075,
      "Ġmedian": 6076,
      "itis": 6077,
      "Ġimplic": 6078,
      "ĠWilliam": 6079,
      "Ġacute": 6080,
      "Ġsup": 6081,
      "Ġmilitary": 6082,
      "Ġappearance": 6083,
      ",^,^": 6084,
      "part": 6085,
      "ĠRuss": 6086,
      "Ġglucose": 6087,
      "emble": 6088,
      "ĠSund": 6089,
      "ifth": 6090,
      "Ġallowing": 6091,
      "Ġ.-": 6092,
      "Ġneur": 6093,
      "ĠDes": 6094,
      "Ġreproduc": 6095,
      "Ġeigenvalues": 6096,
      "Ġci": 6097,
      "bid": 6098,
      "188": 6099,
      "Ġkg": 6100,
      "rome": 6101,
      "Ġanalytical": 6102,
      "Ġmarket": 6103,
      "Ġshare": 6104,
      "Ġ500": 6105,
      "Ġsuffered": 6106,
      "ĠStatus": 6107,
      "Ġbranch": 6108,
      "cr": 6109,
      "Ġanalytic": 6110,
      "ston": 6111,
      "Ġig": 6112,
      "gments": 6113,
      "ĠRed": 6114,
      "Ġways": 6115,
      "Ġcamer": 6116,
      "Ġnumerous": 6117,
      "Ġkilled": 6118,
      "177": 6119,
      "Ġentanglement": 6120,
      "ĠJr": 6121,
      "document": 6122,
      "ĠLeague": 6123,
      "point": 6124,
      "Ġcompe": 6125,
      "})": 6126,
      "Ġrunning": 6127,
      "174": 6128,
      "Ġinteracting": 6129,
      "Ġthickness": 6130,
      "Ġgave": 6131,
      "Ġgradient": 6132,
      "Ġexception": 6133,
      "OD": 6134,
      "Ġthank": 6135,
      "Ġbreaking": 6136,
      "Ġappeared": 6137,
      "178": 6138,
      "Ġinjunctive": 6139,
      "Ġsaying": 6140,
      "Ġexcluded": 6141,
      "ĠRo": 6142,
      "omorphism": 6143,
      "log": 6144,
      "Ġdidn": 6145,
      "Ġmil": 6146,
      "ĠPark": 6147,
      "acts": 6148,
      "Ġintrinsic": 6149,
      "Ġexamined": 6150,
      "Ġpreserv": 6151,
      "Ġodd": 6152,
      "oking": 6153,
      "Ġnothing": 6154,
      "Ġfourier": 6155,
      "Ġraised": 6156,
      "Ġrank": 6157,
      "ann": 6158,
      "Ġplacement": 6159,
      "sqrt": 6160,
      "Ġconfidence": 6161,
      "ester": 6162,
      "Ġperiods": 6163,
      "Ġ98": 6164,
      "Ġoxy": 6165,
      "Ġphon": 6166,
      "185": 6167,
      "Ġconve": 6168,
      "Ġsi": 6169,
      "Ġconcluded": 6170,
      "UB": 6171,
      "ulus": 6172,
      "Ġoblig": 6173,
      "ifted": 6174,
      "Ġhydrogen": 6175,
      "Ġtell": 6176,
      "ĠScot": 6177,
      "Ġoscillations": 6178,
      "eness": 6179,
      "ĠSH": 6180,
      "ĠHearing": 6181,
      "oted": 6182,
      "airs": 6183,
      "ostic": 6184,
      "ĠRES": 6185,
      "stable": 6186,
      "Ġmissing": 6187,
      "ĠLou": 6188,
      "Ġdefici": 6189,
      "Ġvoters": 6190,
      "176": 6191,
      "ano": 6192,
      "Ġsole": 6193,
      "Ġdiscretion": 6194,
      "erry": 6195,
      "egin": 6196,
      "Ġqualified": 6197,
      "Ġsequences": 6198,
      "ÏŃ": 6199,
      "Ġconsequently": 6200,
      "Ġcitizens": 6201,
      "Ġroughly": 6202,
      "NG": 6203,
      "Ġcomputation": 6204,
      "cepti": 6205,
      "Ġsto": 6206,
      "Ġcollaboration": 6207,
      "Ġsuccessful": 6208,
      "Ġsought": 6209,
      "Ġseparated": 6210,
      "Ġmedication": 6211,
      "arma": 6212,
      "Ġjo": 6213,
      "ads": 6214,
      "apy": 6215,
      "ĠCare": 6216,
      "ĠSE": 6217,
      "Ġeffort": 6218,
      "181": 6219,
      "Ġsoftware": 6220,
      "Ġphosph": 6221,
      "Ġelse": 6222,
      "Ġarch": 6223,
      "sub": 6224,
      "SEC": 6225,
      "ĠDOC": 6226,
      "212": 6227,
      "Ġacting": 6228,
      "226": 6229,
      "Ġinjuries": 6230,
      "ico": 6231,
      "Ġrig": 6232,
      "Ġpending": 6233,
      "Ġstead": 6234,
      "Ġquarter": 6235,
      "aded": 6236,
      "ĠInj": 6237,
      "ĠAction": 6238,
      "ocation": 6239,
      "Ġchiral": 6240,
      "ĠWhile": 6241,
      "tor": 6242,
      "Ġmuscle": 6243,
      "osh": 6244,
      "Ġ66": 6245,
      "ĠFl": 6246,
      "Ġsupers": 6247,
      "Ġjour": 6248,
      "Ġvariance": 6249,
      "Ġna": 6250,
      "Ġ!": 6251,
      "inger": 6252,
      "Ġpossibly": 6253,
      "190": 6254,
      "Ġolder": 6255,
      "Ġ67": 6256,
      "Ġzone": 6257,
      "Ġmail": 6258,
      "ateral": 6259,
      "rangle": 6260,
      "Ġflav": 6261,
      "ĠObama": 6262,
      "Ġfilm": 6263,
      "Ġconcentrations": 6264,
      "ARY": 6265,
      "ĠBBC": 6266,
      "Ġgrad": 6267,
      "Ġgender": 6268,
      "roid": 6269,
      "Ġresponses": 6270,
      "Ġinteger": 6271,
      "Ġcomplaints": 6272,
      "Ġwrong": 6273,
      "Ġscores": 6274,
      "Ġalter": 6275,
      "OM": 6276,
      "ĠCOMP": 6277,
      "cing": 6278,
      "Ġresidual": 6279,
      "Ġthermodynam": 6280,
      "body": 6281,
      "Ġsoon": 6282,
      "ĠJack": 6283,
      "Ġ62": 6284,
      "300": 6285,
      "AY": 6286,
      "Ġclaimed": 6287,
      "Ġinterface": 6288,
      "onical": 6289,
      "iii": 6290,
      "Ġsure": 6291,
      "ĠDEC": 6292,
      "Ġproved": 6293,
      "Ġincidence": 6294,
      "Ġgrid": 6295,
      "ĠTim": 6296,
      "Ġnews": 6297,
      "Ġprinc": 6298,
      "179": 6299,
      "Ġbit": 6300,
      "Ġcertification": 6301,
      "apan": 6302,
      "Ġ150": 6303,
      "Ġfather": 6304,
      "Ġhz": 6305,
      "lease": 6306,
      "orge": 6307,
      "Ġdiscl": 6308,
      "Ġagent": 6309,
      "imensional": 6310,
      "CL": 6311,
      "tization": 6312,
      "ĠSummary": 6313,
      "Ġmarked": 6314,
      "Ġsuperconduc": 6315,
      "chi": 6316,
      "Ġhypothesis": 6317,
      "205": 6318,
      "Ġ85": 6319,
      "ĠJohnson": 6320,
      "Ġsuscepti": 6321,
      "ĠQu": 6322,
      "IM": 6323,
      "Ġ125": 6324,
      "ĠCA": 6325,
      "Ġconventional": 6326,
      "Ġdop": 6327,
      "Ġdecays": 6328,
      "ĠDivision": 6329,
      "pris": 6330,
      "184": 6331,
      "dis": 6332,
      "ntry": 6333,
      "Mr": 6334,
      "Ġamounts": 6335,
      "Ġwebs": 6336,
      "Ġbad": 6337,
      "oul": 6338,
      "Ġpartition": 6339,
      "Ġdetainees": 6340,
      "Ġplayers": 6341,
      "timony": 6342,
      "183": 6343,
      "Ġpenal": 6344,
      "Ġfilter": 6345,
      "Ġsubset": 6346,
      "Ġsed": 6347,
      "wards": 6348,
      "Ġcha": 6349,
      "ira": 6350,
      "Ġadvantage": 6351,
      "Ġorbits": 6352,
      "Ġdriving": 6353,
      "Ġgold": 6354,
      "stem": 6355,
      "Ġapproximate": 6356,
      "For": 6357,
      "asis": 6358,
      "Ġdecreasing": 6359,
      "rd": 6360,
      "down": 6361,
      "rator": 6362,
      "ifying": 6363,
      "ĠLa": 6364,
      "Ġwife": 6365,
      "Ġetc": 6366,
      "ĠMcC": 6367,
      "ops": 6368,
      "Ġimmediate": 6369,
      "Ġcoherent": 6370,
      "Ġcontrols": 6371,
      "bre": 6372,
      "Ġbacter": 6373,
      "203": 6374,
      "Ġforming": 6375,
      "Ġsolit": 6376,
      "Ġdiameter": 6377,
      "ĠBrown": 6378,
      "Ġdissip": 6379,
      "Ġnevertheless": 6380,
      "Ġimag": 6381,
      "ĠCON": 6382,
      "Ġsynch": 6383,
      "Ġnotation": 6384,
      "var": 6385,
      "ysis": 6386,
      "Ġconsult": 6387,
      "Ġgoes": 6388,
      "Ġsummari": 6389,
      "Ġboson": 6390,
      "Ġmetast": 6391,
      ")).": 6392,
      "self": 6393,
      "Ġhour": 6394,
      "oes": 6395,
      "Ġforced": 6396,
      "ĠLA": 6397,
      "Ġpreced": 6398,
      "Ġmagnet": 6399,
      "Ġpercentage": 6400,
      "what": 6401,
      "Ġdisabilities": 6402,
      "Ġassessed": 6403,
      "Ġdenoted": 6404,
      "187": 6405,
      "Ġmoved": 6406,
      "isely": 6407,
      "cdot": 6408,
      "Ġreduces": 6409,
      "sex": 6410,
      "Ġamb": 6411,
      "ĠBro": 6412,
      "Ġtask": 6413,
      "van": 6414,
      "ĠImmigration": 6415,
      "rig": 6416,
      "onn": 6417,
      "Ġdanger": 6418,
      "Ġstatic": 6419,
      "Ġsuitable": 6420,
      "Ġhundred": 6421,
      "Ġtunnel": 6422,
      "Ġspokes": 6423,
      "Ġpotentially": 6424,
      "mits": 6425,
      "Ġregulation": 6426,
      "Ġholes": 6427,
      "Ġfriend": 6428,
      "Ġtheories": 6429,
      "Ġvarying": 6430,
      "Ġamend": 6431,
      "ĠADA": 6432,
      "Ġ69": 6433,
      "urch": 6434,
      "Ġcouplings": 6435,
      "Ġgenerate": 6436,
      "Ġpage": 6437,
      "ismiss": 6438,
      "Ġpiec": 6439,
      "Ġstatutory": 6440,
      "Ġdiscovered": 6441,
      "ensus": 6442,
      "ĠOf": 6443,
      "ĠClaim": 6444,
      "ĠMemorandum": 6445,
      "Ġprediction": 6446,
      "Ġinqu": 6447,
      "She": 6448,
      "ĠBritish": 6449,
      "Ġrational": 6450,
      "Ġcrystal": 6451,
      "ĠÂ¶Â¶": 6452,
      "iana": 6453,
      "Ġsen": 6454,
      "care": 6455,
      "ĠNY": 6456,
      "204": 6457,
      "Ġphone": 6458,
      "Ġwhom": 6459,
      "Ġsegreg": 6460,
      "amed": 6461,
      "ĠPaul": 6462,
      "Ġselect": 6463,
      "Ġmanager": 6464,
      "opes": 6465,
      "Ġterror": 6466,
      "Ġinstrument": 6467,
      "Ġtwice": 6468,
      "Ġdiv": 6469,
      "rice": 6470,
      "Ġmemory": 6471,
      "Ġdatabase": 6472,
      "cepted": 6473,
      "Ġhomogeneous": 6474,
      "Ġ63": 6475,
      "ĠCNN": 6476,
      "PR": 6477,
      "Ġinformed": 6478,
      "Ġprojection": 6479,
      "210": 6480,
      "zz": 6481,
      "omatic": 6482,
      "Ġeye": 6483,
      "Ġsafe": 6484,
      "Ġantic": 6485,
      "lines": 6486,
      "Ġsuggesting": 6487,
      "Ġoxygen": 6488,
      "ĠDoe": 6489,
      "UDG": 6490,
      "Ġcomment": 6491,
      "Ġ78": 6492,
      "Ġpotentials": 6493,
      "Ġneither": 6494,
      "Ġsolve": 6495,
      "Ġusa": 6496,
      "Ġtriang": 6497,
      "Ġsignals": 6498,
      "ĠMond": 6499,
      "Ġcomply": 6500,
      "Ġfear": 6501,
      "186": 6502,
      "athy": 6503,
      "Ġnecessarily": 6504,
      "Ġsigns": 6505,
      "Ġinstit": 6506,
      "ĠParties": 6507,
      "hibited": 6508,
      "ires": 6509,
      "Ġencoura": 6510,
      "Ġsector": 6511,
      "Ġnine": 6512,
      "estern": 6513,
      "Ġsynd": 6514,
      "Ġworked": 6515,
      "Ġcatalog": 6516,
      "Ġprofessional": 6517,
      "Ġcounts": 6518,
      "Ġnucleon": 6519,
      "Ġsynth": 6520,
      "Ġinflammatory": 6521,
      "Ġmoments": 6522,
      "Ġexamine": 6523,
      "eres": 6524,
      "Ġguarant": 6525,
      "ĠDeputy": 6526,
      "cor": 6527,
      "Ġ61": 6528,
      "Ġinjection": 6529,
      "ĠEducation": 6530,
      "Ġfigs": 6531,
      "250": 6532,
      "Ġran": 6533,
      "dimensional": 6534,
      "ĠCommittee": 6535,
      "ĠMus": 6536,
      "draw": 6537,
      "Ġdirections": 6538,
      "imm": 6539,
      "risis": 6540,
      "Ġspecified": 6541,
      "Ġsuic": 6542,
      "ruit": 6543,
      "Ġresulted": 6544,
      "Ġfal": 6545,
      "Ġcomplications": 6546,
      "riday": 6547,
      "Ġstoch": 6548,
      "epti": 6549,
      "Ġworth": 6550,
      "inter": 6551,
      "Ġconcept": 6552,
      "formal": 6553,
      "Ġdeli": 6554,
      "192": 6555,
      "IF": 6556,
      "encing": 6557,
      "Ġtelescope": 6558,
      "Ġnumerically": 6559,
      "enty": 6560,
      "ogram": 6561,
      "ĠBen": 6562,
      "pty": 6563,
      "Ġuniversal": 6564,
      "SS": 6565,
      "Ġfain": 6566,
      "etter": 6567,
      "Ġcomposition": 6568,
      "Ġoffered": 6569,
      "Ġtool": 6570,
      "hc": 6571,
      "199": 6572,
      "Ġastrophys": 6573,
      "189": 6574,
      "Ġphoto": 6575,
      "Ġdiscussions": 6576,
      "Ġaveraged": 6577,
      "ĠChris": 6578,
      "Ġeqn": 6579,
      "ipt": 6580,
      "âĢĿ).": 6581,
      "Ġprecisely": 6582,
      "ĠORDERED": 6583,
      "ressive": 6584,
      "Ġpoll": 6585,
      "Ġstationary": 6586,
      "rich": 6587,
      "Ġdetermin": 6588,
      "Ġjudicial": 6589,
      "Ġprevalence": 6590,
      "yer": 6591,
      "ht": 6592,
      "Ġmembrane": 6593,
      "otal": 6594,
      "mark": 6595,
      "Ġrapidly": 6596,
      "Ġcompet": 6597,
      "lam": 6598,
      "emia": 6599,
      "191": 6600,
      "aylor": 6601,
      "Ġcollapse": 6602,
      "ĠEqual": 6603,
      "dynam": 6604,
      "instein": 6605,
      "Ġarter": 6606,
      "Ġdevi": 6607,
      "Ġleaders": 6608,
      "Ġmarriage": 6609,
      "icular": 6610,
      "Ġrad": 6611,
      "Res": 6612,
      "Ġsubstantially": 6613,
      "Ġagencies": 6614,
      "begin": 6615,
      "ĠIll": 6616,
      "Ġattend": 6617,
      "ght": 6618,
      "Ġprecise": 6619,
      "ICH": 6620,
      "LO": 6621,
      "ipar": 6622,
      "209": 6623,
      "ĠMonday": 6624,
      "Ġmortality": 6625,
      "Ġpermit": 6626,
      "ĠWar": 6627,
      "Ġreplaced": 6628,
      "ï¬ģ": 6629,
      "ils": 6630,
      "Ġassumptions": 6631,
      "ĠSheriff": 6632,
      "ĠPen": 6633,
      "Ġstro": 6634,
      "Ġmr": 6635,
      "Ġinh": 6636,
      "195": 6637,
      "Ġ77": 6638,
      "aj": 6639,
      "Ġcircular": 6640,
      "ĠWhite": 6641,
      "Ġ94": 6642,
      "haps": 6643,
      "ĠMail": 6644,
      "Ġfourth": 6645,
      "ĠChild": 6646,
      "Ġhealthy": 6647,
      "Ġvisc": 6648,
      "Ġmu": 6649,
      "opl": 6650,
      "ĠEv": 6651,
      "Ġstructural": 6652,
      "Äŀ": 6653,
      "Ġviolated": 6654,
      "Ġlab": 6655,
      "uven": 6656,
      "Ġdiagnosed": 6657,
      "ĠFriday": 6658,
      "}(\\": 6659,
      "attle": 6660,
      "wood": 6661,
      "Ġconflic": 6662,
      "Ġsizes": 6663,
      "Ġnorth": 6664,
      "Ġmechanical": 6665,
      "ĠModified": 6666,
      "Ġsound": 6667,
      "Ġlesions": 6668,
      "ĠPg": 6669,
      "Ġbil": 6670,
      "Ġsignificance": 6671,
      "Ġsampling": 6672,
      "207": 6673,
      "Ġinstruc": 6674,
      "ĠFile": 6675,
      "tz": 6676,
      "Ġelev": 6677,
      "196": 6678,
      "Ġlagrang": 6679,
      "arcer": 6680,
      "Ġusers": 6681,
      "Ġstrip": 6682,
      "Ġexpert": 6683,
      "Ġclar": 6684,
      "ĠFlor": 6685,
      "194": 6686,
      "208": 6687,
      "Ġrecognized": 6688,
      "Ġbol": 6689,
      "Ġacknowled": 6690,
      "ĠDem": 6691,
      "ĠTime": 6692,
      "Ġauthorities": 6693,
      "Ġchanging": 6694,
      "Ġangles": 6695,
      "Ġdynamic": 6696,
      "Ġinstant": 6697,
      "Ġrestricted": 6698,
      "erge": 6699,
      "Ġgamma": 6700,
      "Ġrobust": 6701,
      "bm": 6702,
      "Ġfunding": 6703,
      "ĠSo": 6704,
      "sch": 6705,
      "Ġobservational": 6706,
      "Ġmel": 6707,
      "Ġcoul": 6708,
      "riers": 6709,
      "mathbb": 6710,
      "ĠSunday": 6711,
      "Ġtraffic": 6712,
      "itely": 6713,
      "eu": 6714,
      "Ġsegment": 6715,
      "Ġimposed": 6716,
      "Ġulti": 6717,
      "Ġinclusion": 6718,
      "forms": 6719,
      "Ġfish": 6720,
      "aniel": 6721,
      "ĠAuth": 6722,
      "Ġspent": 6723,
      "Ġplanet": 6724,
      "poration": 6725,
      "Ġwanted": 6726,
      "coh": 6727,
      "ĠDismiss": 6728,
      "Ġdense": 6729,
      "Ġauthorized": 6730,
      "Ġperp": 6731,
      "193": 6732,
      "Ġtriple": 6733,
      "istry": 6734,
      "Ġextracted": 6735,
      "erican": 6736,
      "Ġvar": 6737,
      "Ġbrightness": 6738,
      "Ġspan": 6739,
      "Ġdipole": 6740,
      "bal": 6741,
      "Doc": 6742,
      "har": 6743,
      "Ġexplanation": 6744,
      "Ġreturned": 6745,
      "otherapy": 6746,
      "ESS": 6747,
      "Ġonset": 6748,
      "flow": 6749,
      "Ġdisability": 6750,
      "Ġspaces": 6751,
      "Ġcere": 6752,
      "Ġinterference": 6753,
      "Ġfine": 6754,
      "Ġpet": 6755,
      "standing": 6756,
      "Ġlives": 6757,
      "231": 6758,
      "Ġunstable": 6759,
      "Ġsplitting": 6760,
      "Ġcategory": 6761,
      "Ġkept": 6762,
      "Ġcanonical": 6763,
      "LQ": 6764,
      "EW": 6765,
      "Ġexecutive": 6766,
      "iller": 6767,
      "Ġdivided": 6768,
      "udget": 6769,
      "Ġpion": 6770,
      "Ġsouth": 6771,
      "pati": 6772,
      "Ġitems": 6773,
      "197": 6774,
      "Ġcalls": 6775,
      "Ġsteady": 6776,
      "TIFF": 6777,
      "Ġclassified": 6778,
      "Ġcontrary": 6779,
      "Ġpermanent": 6780,
      "thetic": 6781,
      "Ġfacilit": 6782,
      "Ġlogar": 6783,
      "Ġfee": 6784,
      "Ġdetermines": 6785,
      "ĠFax": 6786,
      "uation": 6787,
      "ERV": 6788,
      "They": 6789,
      "],": 6790,
      "Ġannual": 6791,
      "Ġcrucial": 6792,
      "Ġthous": 6793,
      "Ġglass": 6794,
      "Ġongoing": 6795,
      "----------------": 6796,
      "Ġarise": 6797,
      "Ġapplies": 6798,
      "Ġprosp": 6799,
      "Ġdecided": 6800,
      "âĢĲ": 6801,
      "asion": 6802,
      "Ġindices": 6803,
      "ĠForm": 6804,
      "Ġlocalized": 6805,
      "Ġreasonably": 6806,
      "Ġvariability": 6807,
      "Ġanalyze": 6808,
      "Ġport": 6809,
      "Ġbarrier": 6810,
      "ĠFranc": 6811,
      "ĠCorrection": 6812,
      "ithms": 6813,
      "ales": 6814,
      "Ġrestra": 6815,
      "Ġinvolves": 6816,
      "ĠHuman": 6817,
      "Ġstochastic": 6818,
      "Ġreveal": 6819,
      "cos": 6820,
      "Ġremove": 6821,
      "ĠWilliams": 6822,
      "Ġgoals": 6823,
      "erated": 6824,
      "Ġhr": 6825,
      "Ġextensive": 6826,
      "Ġindust": 6827,
      "Ġ1988": 6828,
      "LAINTIFF": 6829,
      "Ġlayers": 6830,
      "Ġharassment": 6831,
      "ĠParagraph": 6832,
      "Ġfriends": 6833,
      "ĠClause": 6834,
      "ureau": 6835,
      "Ġhear": 6836,
      "RU": 6837,
      "Ġholding": 6838,
      "&@": 6839,
      "Ġcircle": 6840,
      "Ġga": 6841,
      "uing": 6842,
      "Ġvisible": 6843,
      "198": 6844,
      "Ġenvelop": 6845,
      "forward": 6846,
      "Ġprotected": 6847,
      "Ġimmig": 6848,
      "Ġ1989": 6849,
      "Ġtrying": 6850,
      "uesday": 6851,
      "Ġlearning": 6852,
      "SD": 6853,
      "Ġ400": 6854,
      "Ġextin": 6855,
      "Ġhimself": 6856,
      "QU": 6857,
      "iny": 6858,
      "ayer": 6859,
      "ĠCouncil": 6860,
      "unities": 6861,
      "lu": 6862,
      "302": 6863,
      "Ġ73": 6864,
      "ĠBlack": 6865,
      "Ġanisotrop": 6866,
      "unctions": 6867,
      "rating": 6868,
      "Ġeventually": 6869,
      "Ġinterested": 6870,
      "ĠPrison": 6871,
      "omers": 6872,
      "Ġextreme": 6873,
      "jective": 6874,
      "orth": 6875,
      "Ġcoulomb": 6876,
      "Ġintended": 6877,
      "ASE": 6878,
      "eland": 6879,
      "Ġdie": 6880,
      "Ġviolence": 6881,
      "ĠAPP": 6882,
      "ĠSw": 6883,
      "Ġnation": 6884,
      "ĠMedical": 6885,
      "Ġfight": 6886,
      "inn": 6887,
      "Ġpret": 6888,
      "omorphic": 6889,
      "formations": 6890,
      "Ġarticle": 6891,
      "ĠPolicy": 6892,
      "Ġvortex": 6893,
      "Ġlies": 6894,
      "rec": 6895,
      "gent": 6896,
      "Ġeconomic": 6897,
      "terior": 6898,
      "213": 6899,
      "Ġhall": 6900,
      "Ġtransferred": 6901,
      "Ġkernel": 6902,
      "Ġdwarf": 6903,
      "Ġdaughter": 6904,
      "................................................": 6905,
      "ĠAssociation": 6906,
      "ellig": 6907,
      "Defendant": 6908,
      "Ġengine": 6909,
      "ĠReview": 6910,
      "Ġcovari": 6911,
      ":\\": 6912,
      "ĠBrit": 6913,
      "Ġcontinues": 6914,
      "ĠON": 6915,
      "ologies": 6916,
      "Ġaspects": 6917,
      "iab": 6918,
      "ĠTuesday": 6919,
      "ĠMe": 6920,
      "}^{\\": 6921,
      "Ġmoderate": 6922,
      "Ġregul": 6923,
      "Ġwat": 6924,
      "Ġwriting": 6925,
      "Ġbounds": 6926,
      "Ġadopt": 6927,
      "Ġstabil": 6928,
      "Ġions": 6929,
      "Ġbab": 6930,
      "ror": 6931,
      "Ġdl": 6932,
      "Ġbreast": 6933,
      "acent": 6934,
      "Ġ-\\": 6935,
      "SON": 6936,
      "Ġdirac": 6937,
      "ĠRob": 6938,
      "Ġclosely": 6939,
      "Ġcompreh": 6940,
      "aiver": 6941,
      "ĠDocket": 6942,
      "ĠPri": 6943,
      "Ġaccepted": 6944,
      "Ġrecommended": 6945,
      "Ġtrace": 6946,
      "Ġ96": 6947,
      "includ": 6948,
      "Ġnearby": 6949,
      "ourts": 6950,
      "cence": 6951,
      "cribed": 6952,
      "irus": 6953,
      "hibition": 6954,
      "Ġkpc": 6955,
      "Ġlagrangian": 6956,
      "Ġelastic": 6957,
      "ĊĊČ": 6958,
      "ticles": 6959,
      "240": 6960,
      "ĠFlorida": 6961,
      "Ġuncons": 6962,
      "Ġadult": 6963,
      "Ġmere": 6964,
      "Ġfrequently": 6965,
      "Ġdescribing": 6966,
      "ISS": 6967,
      ":\",": 6968,
      "ĠMary": 6969,
      "Ġsight": 6970,
      "SC": 6971,
      "Ġgun": 6972,
      "Ġgiant": 6973,
      "Ġbroken": 6974,
      "Ġcarbon": 6975,
      "iod": 6976,
      "Ġinad": 6977,
      "itter": 6978,
      "Ġadh": 6979,
      "Ġmonte": 6980,
      "vs": 6981,
      "Ġsomewhat": 6982,
      "epsilon": 6983,
      "Ġ74": 6984,
      "ĠHol": 6985,
      "see": 6986,
      "Ġnegligible": 6987,
      "ĠWed": 6988,
      "Ġexpectation": 6989,
      "Ġrenal": 6990,
      "Ġlig": 6991,
      "ĠDC": 6992,
      "otype": 6993,
      "Ġdotted": 6994,
      "EX": 6995,
      "Ġvolt": 6996,
      "ĠLouis": 6997,
      "Al": 6998,
      "220": 6999,
      "cher": 7000,
      "Ġdeveloping": 7001,
      "legal": 7002,
      "ropri": 7003,
      "Ġstrain": 7004,
      "Ġgrand": 7005,
      "Ġlore": 7006,
      "chester": 7007,
      "Ġadmission": 7008,
      "ĠBecause": 7009,
      "icaid": 7010,
      "Ġnovel": 7011,
      ",@": 7012,
      "oz": 7013,
      "Ġfilled": 7014,
      "Ġhorizontal": 7015,
      "ĠAlthough": 7016,
      "Ġborn": 7017,
      "Ġcoron": 7018,
      "Ġsurrounding": 7019,
      "Ġkid": 7020,
      "230": 7021,
      "Ġuser": 7022,
      "Ġsust": 7023,
      "ĠEmployment": 7024,
      "Ġwebsite": 7025,
      "Ġorthog": 7026,
      "Ġpowers": 7027,
      "oration": 7028,
      "Ġconfirm": 7029,
      "Ġ71": 7030,
      "Ġcarlo": 7031,
      "ĠDPD": 7032,
      "ĠInternational": 7033,
      "Ġruns": 7034,
      "was": 7035,
      "Ġresident": 7036,
      "Ġharmonic": 7037,
      "ita": 7038,
      "ĠAfrican": 7039,
      "Ġclinic": 7040,
      "Ġtimely": 7041,
      "ĠBur": 7042,
      "Ġarray": 7043,
      "Ġgetting": 7044,
      "Ġsleep": 7045,
      "Ġdepri": 7046,
      "Ġdevices": 7047,
      "ĠOp": 7048,
      "Ġlimitations": 7049,
      "ĠSim": 7050,
      "ipment": 7051,
      "ractive": 7052,
      "Ġcomplicated": 7053,
      "TY": 7054,
      "disc": 7055,
      "olation": 7056,
      "Pro": 7057,
      "ĠDuring": 7058,
      "outhern": 7059,
      "ĊĊĠĠĠ": 7060,
      "Ġdated": 7061,
      "Ġcrime": 7062,
      "Ġradii": 7063,
      "Ġsyndrome": 7064,
      "RQ": 7065,
      "Ġlib": 7066,
      "Ġexperienced": 7067,
      "ĠProcedure": 7068,
      "Ġsubsequently": 7069,
      "requ": 7070,
      "Ġconvex": 7071,
      "Ġconjug": 7072,
      "Ġ79": 7073,
      "Ġprisoner": 7074,
      "Ġadverse": 7075,
      "Ġplayed": 7076,
      "Ġneighborhood": 7077,
      "Ġerg": 7078,
      "Ġ97": 7079,
      "Ġanimals": 7080,
      "Ġpropagation": 7081,
      "Ġobjective": 7082,
      "Ġexponent": 7083,
      "Ġtechnical": 7084,
      "Ġwidely": 7085,
      "215": 7086,
      "Ġdelivery": 7087,
      "isa": 7088,
      "urally": 7089,
      "hed": 7090,
      "Ġask": 7091,
      "Ġdecomposition": 7092,
      "ville": 7093,
      "Ġwish": 7094,
      "Ġwindow": 7095,
      "Ġrelating": 7096,
      "Ġplanning": 7097,
      "Ġguidelines": 7098,
      "Ġtemporal": 7099,
      "!\\": 7100,
      "ĠCup": 7101,
      "emed": 7102,
      "Ġsubstit": 7103,
      "Ġbath": 7104,
      "Ġrecommendations": 7105,
      "Ġportion": 7106,
      "ĠUnion": 7107,
      "ĠCan": 7108,
      "ingly": 7109,
      "ctive": 7110,
      "ignment": 7111,
      "Ġstatements": 7112,
      "ĠStand": 7113,
      "Ġlaun": 7114,
      "Ġss": 7115,
      "rif": 7116,
      "Ġmaintained": 7117,
      "ibilities": 7118,
      "Ġstronger": 7119,
      "nesday": 7120,
      "aturday": 7121,
      "Ġdrop": 7122,
      "Ġionization": 7123,
      "Ġearth": 7124,
      "Ġtransf": 7125,
      "Ġ82": 7126,
      "},\\": 7127,
      "235": 7128,
      "Ġpresident": 7129,
      "Ġsometimes": 7130,
      "rie": 7131,
      "Ġsurpris": 7132,
      "fty": 7133,
      "brid": 7134,
      "Ġmit": 7135,
      ")=": 7136,
      "211": 7137,
      "ĠKen": 7138,
      "uous": 7139,
      "Ġcommonly": 7140,
      "Ġeg": 7141,
      "marily": 7142,
      "ĠÂ§Â§": 7143,
      "wa": 7144,
      "UH": 7145,
      "Ġadvanced": 7146,
      "Ġ76": 7147,
      "Ġregression": 7148,
      "Ġscope": 7149,
      "Ġreceptor": 7150,
      "Ġgenetic": 7151,
      "ĠAnn": 7152,
      "term": 7153,
      "Ġradiative": 7154,
      "Ġsubstr": 7155,
      "An": 7156,
      "Ġperhaps": 7157,
      "Ġmotor": 7158,
      "rates": 7159,
      "phen": 7160,
      "Ġhereby": 7161,
      "Ġfeedback": 7162,
      "Ġcomputational": 7163,
      "ĠCarol": 7164,
      "icago": 7165,
      "Ġextinction": 7166,
      "Ġintervals": 7167,
      "Ġturns": 7168,
      "221": 7169,
      "Ġwalk": 7170,
      "tile": 7171,
      "Ġgluon": 7172,
      "Ġturned": 7173,
      "Ġdisks": 7174,
      "Ġeinstein": 7175,
      "Ġenz": 7176,
      "raft": 7177,
      "Ġthor": 7178,
      "ĠMichigan": 7179,
      "va": 7180,
      "ĠJones": 7181,
      "Ġthereby": 7182,
      "Ġculture": 7183,
      "Ġcogn": 7184,
      "Ġstraightforward": 7185,
      "ĠRepublic": 7186,
      "225": 7187,
      "ya": 7188,
      "Ġtraditional": 7189,
      "Ġstriking": 7190,
      "ĠWednesday": 7191,
      "Ġmeson": 7192,
      "vert": 7193,
      "ĠAngeles": 7194,
      "Ġlogarithm": 7195,
      "Ġatmosphere": 7196,
      "Ġemb": 7197,
      "Ġprecision": 7198,
      "Ġprefer": 7199,
      "elial": 7200,
      "Ġsearches": 7201,
      "Ġextract": 7202,
      "entific": 7203,
      "Ġspot": 7204,
      "LAINT": 7205,
      "Ġleaving": 7206,
      "ĠFin": 7207,
      "THER": 7208,
      "Ġsubjected": 7209,
      "Ġpossess": 7210,
      "Ġbeg": 7211,
      "Ġperturbations": 7212,
      "Ġpayment": 7213,
      "Ġsupporting": 7214,
      "ĠSaturday": 7215,
      "Ġgrowing": 7216,
      "ĠTen": 7217,
      "Ġqubit": 7218,
      "mut": 7219,
      "SP": 7220,
      "Ġmnras": 7221,
      "ELI": 7222,
      "Ġlawsuit": 7223,
      "ko": 7224,
      "ospheric": 7225,
      "Ġtev": 7226,
      "FIC": 7227,
      "ĠEast": 7228,
      "Ġrecover": 7229,
      "Ġmostly": 7230,
      "sim": 7231,
      "Ġinflation": 7232,
      "Ġsatisfying": 7233,
      "iet": 7234,
      "Ġclouds": 7235,
      "thal": 7236,
      "Ġindependently": 7237,
      "Ġzh": 7238,
      "ĠSti": 7239,
      "Ġconsequences": 7240,
      "ota": 7241,
      "Ġdiffer": 7242,
      "Ġvehicle": 7243,
      "Ġasymmetry": 7244,
      "Ġreactions": 7245,
      "Ġquickly": 7246,
      "Ġincarcer": 7247,
      "ominal": 7248,
      "Ġspeech": 7249,
      "Ġrecovery": 7250,
      "Ġcooper": 7251,
      "ĠVal": 7252,
      "Ġsdss": 7253,
      "Ġtried": 7254,
      "Ġrespective": 7255,
      "Ġanomal": 7256,
      "222": 7257,
      "Ġpt": 7258,
      "ĠSU": 7259,
      "Ġcontrad": 7260,
      "ĠWork": 7261,
      "rick": 7262,
      "Ġcutoff": 7263,
      "Ġphotometric": 7264,
      "Ġrealistic": 7265,
      "key": 7266,
      "missions": 7267,
      "Ġunion": 7268,
      "ĠAriz": 7269,
      "Ġastron": 7270,
      "ĠReporter": 7271,
      "aker": 7272,
      "Ġlung": 7273,
      "Ed": 7274,
      "Ġgirl": 7275,
      "Ġcorrected": 7276,
      "Ġflex": 7277,
      "Ġ84": 7278,
      "Ġparticipation": 7279,
      "prime": 7280,
      "Ġpurch": 7281,
      "ml": 7282,
      "Ġopposition": 7283,
      "ĠDHS": 7284,
      "ĠLos": 7285,
      "Ġparticipate": 7286,
      "ĠTele": 7287,
      "Ġcounty": 7288,
      "ugg": 7289,
      "ĠAustral": 7290,
      "ecting": 7291,
      "Ġeducational": 7292,
      "raq": 7293,
      "tered": 7294,
      "Ġsupernov": 7295,
      "Ġ1986": 7296,
      "Ġ87": 7297,
      "Ġsimultaneously": 7298,
      "Ġperforming": 7299,
      "Ġarc": 7300,
      "Ġdeclar": 7301,
      "Ġ83": 7302,
      "Ġsituated": 7303,
      "Ġultra": 7304,
      "Ġalgorithms": 7305,
      "Ġentity": 7306,
      "Ġmanifold": 7307,
      "Ġsimulated": 7308,
      "Ġcomplexity": 7309,
      "Ġchance": 7310,
      "ĠMuslim": 7311,
      "Ġfragment": 7312,
      "Ġlimiting": 7313,
      "Ġdirector": 7314,
      "Ġimmune": 7315,
      "ĠAlex": 7316,
      "Ġrs": 7317,
      "Ġinterpreted": 7318,
      "ĠCt": 7319,
      "Ġtestimony": 7320,
      "mic": 7321,
      "Ġcommitted": 7322,
      "Ġcrossing": 7323,
      "214": 7324,
      "isco": 7325,
      "224": 7326,
      "Ġos": 7327,
      "Ġabnormal": 7328,
      "Ġremained": 7329,
      "Ġreferences": 7330,
      "ependent": 7331,
      "Ġscheduled": 7332,
      "Ġlinked": 7333,
      "Ġmodification": 7334,
      "Ġmedic": 7335,
      "Ġhope": 7336,
      "Ġastro": 7337,
      "Ġlob": 7338,
      "Ġrays": 7339,
      "Ġacceleration": 7340,
      "romagnetic": 7341,
      "Ġlongitud": 7342,
      "}}{": 7343,
      "223": 7344,
      "Ġheating": 7345,
      "Ġexhibits": 7346,
      "Ġsin": 7347,
      "Ġaid": 7348,
      "Ġoverlap": 7349,
      "WL": 7350,
      "Ġarising": 7351,
      "ĠRest": 7352,
      "ĠGeorge": 7353,
      "229": 7354,
      "atin": 7355,
      "Ġprincipal": 7356,
      "usc": 7357,
      "005": 7358,
      "Ġreflec": 7359,
      "Ġabd": 7360,
      "ĠIm": 7361,
      "teenth": 7362,
      "Ġhighl": 7363,
      "ECF": 7364,
      "ĠManagement": 7365,
      "Ġgly": 7366,
      "ĠHigh": 7367,
      "ursday": 7368,
      "ĠBr": 7369,
      "ospit": 7370,
      "ĠEntry": 7371,
      "fit": 7372,
      "Ġreliable": 7373,
      "Ġtang": 7374,
      "Ġexperimentally": 7375,
      "Ġquantitative": 7376,
      "Ġracial": 7377,
      "Ġposterior": 7378,
      "ocytes": 7379,
      "Ġproviders": 7380,
      "ĠBureau": 7381,
      "Ġwil": 7382,
      "Ġ81": 7383,
      "Ġcard": 7384,
      "Ġgast": 7385,
      "Ġgrade": 7386,
      "Ġreducing": 7387,
      "cont": 7388,
      "infty": 7389,
      "Ġsociety": 7390,
      "arest": 7391,
      "Ġcommittee": 7392,
      "227": 7393,
      "lectric": 7394,
      "Ġborder": 7395,
      "atz": 7396,
      "Ġtrain": 7397,
      "yan": 7398,
      "Ġfitted": 7399,
      "Ġdog": 7400,
      "Ġ1987": 7401,
      "Ġcenters": 7402,
      "Ġconsisting": 7403,
      "Ġshear": 7404,
      "Supp": 7405,
      "Ġpresents": 7406,
      "rian": 7407,
      "Ġundergo": 7408,
      "ĠOfficer": 7409,
      "ament": 7410,
      "Ġhus": 7411,
      "ĠCorp": 7412,
      "Ġ88": 7413,
      "Ġchief": 7414,
      "Ġspins": 7415,
      "241": 7416,
      "ĠAmericans": 7417,
      "lands": 7418,
      "Ġpapers": 7419,
      "Ġduty": 7420,
      "Ġfran": 7421,
      "Ġstrategies": 7422,
      "Ġprimarily": 7423,
      "rh": 7424,
      "Ġresolve": 7425,
      "ĠAN": 7426,
      "Ġanything": 7427,
      "ĠSERV": 7428,
      "vent": 7429,
      "quoting": 7430,
      "Ġpush": 7431,
      "Ġaccum": 7432,
      "Ġcyl": 7433,
      "228": 7434,
      "Ġ89": 7435,
      "Ġdiagnostic": 7436,
      "Ġmapping": 7437,
      "idav": 7438,
      "ntz": 7439,
      "Ġremedy": 7440,
      "Ġnull": 7441,
      "Ġsatell": 7442,
      "under": 7443,
      "Ġib": 7444,
      "Ġagrees": 7445,
      "Ġexplore": 7446,
      "Ġintroduction": 7447,
      "Ġheter": 7448,
      "Ġnormalization": 7449,
      "Ġpreparation": 7450,
      "ĠThursday": 7451,
      "rab": 7452,
      "Ġcommand": 7453,
      "Ġquarks": 7454,
      "Ġconcerned": 7455,
      "Ġensemble": 7456,
      "ĠIT": 7457,
      "ĠNews": 7458,
      "Ġgeometric": 7459,
      "CV": 7460,
      "Ġassist": 7461,
      "Ġregim": 7462,
      "Ġsolving": 7463,
      "Ġbrown": 7464,
      "Ġpick": 7465,
      "Ġscientific": 7466,
      "Ġinserting": 7467,
      "Ġhybrid": 7468,
      "MA": 7469,
      "cons": 7470,
      "Ġneglect": 7471,
      "):": 7472,
      "illary": 7473,
      "ĠAir": 7474,
      "inity": 7475,
      "inson": 7476,
      "Ġmind": 7477,
      "Ġpal": 7478,
      "Ġbes": 7479,
      "Ġdrawn": 7480,
      "Ġboy": 7481,
      "Ġ86": 7482,
      "Ġconfined": 7483,
      "ASS": 7484,
      "Ġhomes": 7485,
      "Ġmessage": 7486,
      "Ġdegenerate": 7487,
      "Ġmorning": 7488,
      "Ġafford": 7489,
      "BI": 7490,
      "Ġ..": 7491,
      "Ġod": 7492,
      "Ġbriefly": 7493,
      "noop": 7494,
      "Ġdecree": 7495,
      "Ġsignature": 7496,
      "itable": 7497,
      "Ġopening": 7498,
      "Ġalcoh": 7499,
      "Ġgeneric": 7500,
      "ĠJeff": 7501,
      "ĠAppear": 7502,
      "Ġempir": 7503,
      "LAR": 7504,
      "Ġaccompan": 7505,
      "Ġrh": 7506,
      "216": 7507,
      "Ġreflection": 7508,
      "Ġstages": 7509,
      "Ġfirm": 7510,
      "Ġenroll": 7511,
      "ĠCOUN": 7512,
      "Ġvoting": 7513,
      "Ġ139": 7514,
      "Ġsentence": 7515,
      "Ġinstitution": 7516,
      "Ġlorentz": 7517,
      "Ġbars": 7518,
      "245": 7519,
      "ermany": 7520,
      "ura": 7521,
      "ugh": 7522,
      "Ġcrisis": 7523,
      "Ġequipment": 7524,
      "Ġrotating": 7525,
      "Ġprompt": 7526,
      "218": 7527,
      "Ġadjacent": 7528,
      "oli": 7529,
      "otional": 7530,
      "Ġmisc": 7531,
      "ĠOpposition": 7532,
      "Ġplays": 7533,
      "ĠThus": 7534,
      "Ġtargets": 7535,
      "ĠEX": 7536,
      "ACA": 7537,
      "Ġpractical": 7538,
      "Ġdriver": 7539,
      "}+": 7540,
      "ĠDEF": 7541,
      "icated": 7542,
      "ĠHer": 7543,
      "Ġadults": 7544,
      "Ġperturbative": 7545,
      "Ġsides": 7546,
      "Ġacad": 7547,
      "Ġtru": 7548,
      "ĠOrd": 7549,
      "Ġvanishes": 7550,
      "219": 7551,
      "Ġlocations": 7552,
      "inted": 7553,
      "Ġredshifts": 7554,
      "Ġdamp": 7555,
      "vin": 7556,
      "Ġfails": 7557,
      "Ġ110": 7558,
      "Ġwrote": 7559,
      "elligence": 7560,
      "Ġenhancement": 7561,
      "Ġelectromagnetic": 7562,
      "Ġmeasuring": 7563,
      "CSO": 7564,
      "Ġanisotropy": 7565,
      "abilitation": 7566,
      "Ġestimation": 7567,
      "263": 7568,
      "Ġpm": 7569,
      "Ġgrounds": 7570,
      "EO": 7571,
      "ifer": 7572,
      "urrence": 7573,
      "pon": 7574,
      "Ġartif": 7575,
      "ĠAppeal": 7576,
      "det": 7577,
      "apter": 7578,
      "ĠTeam": 7579,
      "ĠAvenue": 7580,
      "249": 7581,
      "Ġformalism": 7582,
      "ĠGovernor": 7583,
      ".-": 7584,
      "Ġpump": 7585,
      "And": 7586,
      "hio": 7587,
      "Ġapart": 7588,
      "gra": 7589,
      "Ġfocused": 7590,
      "ĠIraq": 7591,
      "Ġcamera": 7592,
      "Ġmagnetization": 7593,
      "rr": 7594,
      "Ġcub": 7595,
      "))": 7596,
      "ni": 7597,
      "Ġarises": 7598,
      "unately": 7599,
      "thew": 7600,
      "wo": 7601,
      "234": 7602,
      "Ġdetained": 7603,
      "Ġobser": 7604,
      "Ġds": 7605,
      "itt": 7606,
      "Ġtimescal": 7607,
      "Ġreserv": 7608,
      "ĠVir": 7609,
      "Ġmagnitudes": 7610,
      "232": 7611,
      "stead": 7612,
      "Ġaged": 7613,
      "Ġpharma": 7614,
      "Ġoption": 7615,
      "Ġfaith": 7616,
      "Ġpredomin": 7617,
      "arm": 7618,
      "Ġseparately": 7619,
      "Ġpartially": 7620,
      "ĠNe": 7621,
      "Ġ133": 7622,
      "Ġphonon": 7623,
      "oidal": 7624,
      "Ġexcell": 7625,
      "Ġthing": 7626,
      "Ġunp": 7627,
      "burst": 7628,
      "Ġcomprehensive": 7629,
      "antly": 7630,
      "260": 7631,
      "Ġrandomly": 7632,
      "Ġmolecule": 7633,
      "GH": 7634,
      "236": 7635,
      "Ġlongitudinal": 7636,
      "SH": 7637,
      "Ġfalse": 7638,
      "Ġrepresenting": 7639,
      "Ġsav": 7640,
      "abled": 7641,
      "Ġcalibration": 7642,
      "isson": 7643,
      "Ġsharp": 7644,
      "spec": 7645,
      "Ġlegisl": 7646,
      "PONS": 7647,
      "Ġuns": 7648,
      "Ġinsurance": 7649,
      "psilon": 7650,
      "Ġfluxes": 7651,
      "atal": 7652,
      "255": 7653,
      "Ġconservation": 7654,
      "Ġarrow": 7655,
      "Ġlocally": 7656,
      "Ġargued": 7657,
      "ests": 7658,
      "217": 7659,
      "ĠLLP": 7660,
      "nf": 7661,
      "olf": 7662,
      "Ġadiab": 7663,
      "Ġreads": 7664,
      "riction": 7665,
      "roy": 7666,
      "gal": 7667,
      "Ġmerits": 7668,
      "Ġcycl": 7669,
      "Ġappoint": 7670,
      "AFF": 7671,
      "264": 7672,
      "ĠFurther": 7673,
      "amily": 7674,
      "Ġcapt": 7675,
      "arden": 7676,
      "Ġcomputing": 7677,
      "}-": 7678,
      "Ġmovement": 7679,
      "Ġdisorders": 7680,
      "ĠStaff": 7681,
      "Ġ93": 7682,
      "Ġsuffer": 7683,
      "Ġexcitations": 7684,
      "Ġmodeling": 7685,
      "ibase": 7686,
      "vare": 7687,
      "ĠMat": 7688,
      "Ġsuccessfully": 7689,
      "ĠFund": 7690,
      "ihil": 7691,
      "Ġrestriction": 7692,
      "ĠMass": 7693,
      "Ġcrow": 7694,
      "PH": 7695,
      "Ġreviews": 7696,
      "doibase": 7697,
      "ĠDen": 7698,
      "Ġchallenges": 7699,
      "233": 7700,
      "Ġsuppl": 7701,
      "Ġaffir": 7702,
      "=\\": 7703,
      "ighth": 7704,
      "Ġinfected": 7705,
      "Ġtight": 7706,
      "Dkt": 7707,
      "Ġnas": 7708,
      "ĠĠĠĠĠĠĠĠĠ": 7709,
      "Ġordering": 7710,
      "Ġsystemic": 7711,
      "olved": 7712,
      "Ġunitary": 7713,
      ",âĢĻ": 7714,
      "258": 7715,
      "ĠOther": 7716,
      "Ġfoster": 7717,
      "Ġbuilt": 7718,
      "Sec": 7719,
      "Ġĕ": 7720,
      "Ġpolarized": 7721,
      "Ġquadratic": 7722,
      "Ġprivile": 7723,
      "raz": 7724,
      "dal": 7725,
      "^{(": 7726,
      "Ġiron": 7727,
      "Ġtox": 7728,
      "238": 7729,
      "ander": 7730,
      "osa": 7731,
      "mas": 7732,
      "Ġped": 7733,
      "Ġweighted": 7734,
      "Ġmd": 7735,
      "Ġorthogonal": 7736,
      "Ġeigenvalue": 7737,
      "Ġmob": 7738,
      "Ġregardless": 7739,
      "umps": 7740,
      "Ġsurveys": 7741,
      "ĠRod": 7742,
      "Ġtom": 7743,
      "Ġnearest": 7744,
      "010": 7745,
      "ĠLu": 7746,
      "resp": 7747,
      "ĠMedicaid": 7748,
      "DT": 7749,
      "vec": 7750,
      "Ġopportunities": 7751,
      "Ġillustrated": 7752,
      "Ġphenomenon": 7753,
      "Ġmatching": 7754,
      "cast": 7755,
      "ampions": 7756,
      "Ġpolymer": 7757,
      "ami": 7758,
      "Ġfm": 7759,
      "Ġemployer": 7760,
      "Ġlarg": 7761,
      "Ġrefused": 7762,
      "Ġlif": 7763,
      "008": 7764,
      "flu": 7765,
      "Ġspont": 7766,
      "ĠPal": 7767,
      "Ġsuppressed": 7768,
      "Ġdrin": 7769,
      "Ġderivatives": 7770,
      "Ġdispar": 7771,
      "Ġbh": 7772,
      "âĢ¦âĢ¦âĢ¦âĢ¦": 7773,
      "Ġsupports": 7774,
      "Ġshifts": 7775,
      "Ġpor": 7776,
      "Ġinstitute": 7777,
      "ĠParty": 7778,
      "ĠHonor": 7779,
      "owski": 7780,
      "Ġld": 7781,
      "ĠUNITED": 7782,
      "Ġ137": 7783,
      "237": 7784,
      "Ġdisru": 7785,
      "Ġhusband": 7786,
      "Ġpanels": 7787,
      "TIVE": 7788,
      "Ġleader": 7789,
      "Ġguidance": 7790,
      "Ġgriev": 7791,
      "}_{\\": 7792,
      "Ġunderw": 7793,
      "Ġnorm": 7794,
      "Ġcertainly": 7795,
      "ologic": 7796,
      "Ġcausing": 7797,
      "Ġannounced": 7798,
      "Ġsolely": 7799,
      "cn": 7800,
      "Ġplayer": 7801,
      "Ġgames": 7802,
      "ena": 7803,
      "Ġobviously": 7804,
      "Ġexplos": 7805,
      "Ġincome": 7806,
      "Ġvalidity": 7807,
      "Ġble": 7808,
      "Ġads": 7809,
      "ĠSal": 7810,
      "Ġsomeone": 7811,
      "abs": 7812,
      "ĠPL": 7813,
      "def": 7814,
      "ĠCorrectional": 7815,
      "ĠMex": 7816,
      "Ġepoch": 7817,
      "Ġlargely": 7818,
      "Í¬": 7819,
      "ĠDel": 7820,
      "Ġimply": 7821,
      "ĠMur": 7822,
      "reason": 7823,
      "239": 7824,
      "Ġpassed": 7825,
      "Ġadditionally": 7826,
      "pson": 7827,
      "Ġjournal": 7828,
      "Ġdiscriminatory": 7829,
      "Ġdenying": 7830,
      "Ġvoltage": 7831,
      "243": 7832,
      "Ġdiscrep": 7833,
      "fort": 7834,
      "Ġmonot": 7835,
      "endicular": 7836,
      "Ġcontrovers": 7837,
      "Ġsolved": 7838,
      "Ġaccessible": 7839,
      "Ġspiral": 7840,
      "Ġunus": 7841,
      "ohn": 7842,
      "Ġbiological": 7843,
      "Ġdepart": 7844,
      "hd": 7845,
      "Ġcategories": 7846,
      "Ġabundances": 7847,
      "Ġhydrodynam": 7848,
      "oo": 7849,
      "minent": 7850,
      "Ġviolate": 7851,
      "acob": 7852,
      "Ġrejected": 7853,
      "oked": 7854,
      "oming": 7855,
      "ĠArizona": 7856,
      "Ġplaces": 7857,
      "Ġspeak": 7858,
      "Ġstre": 7859,
      "Ġparagraphs": 7860,
      "Ġjump": 7861,
      "ested": 7862,
      "Ġfootball": 7863,
      "Ġhappened": 7864,
      "Ġcu": 7865,
      "Ġbund": 7866,
      "zen": 7867,
      "Ġthousands": 7868,
      "Ġvictims": 7869,
      "1999": 7870,
      "Ġec": 7871,
      "Ġcollect": 7872,
      "Ġcovering": 7873,
      "Ġcriterion": 7874,
      "Ġcele": 7875,
      "Ġpointed": 7876,
      "DO": 7877,
      "Ġsemic": 7878,
      "Ġtumors": 7879,
      "Ġcone": 7880,
      "ĠVI": 7881,
      "Ġimposs": 7882,
      "Ġdefense": 7883,
      "equate": 7884,
      "ĠEN": 7885,
      "ĠLee": 7886,
      "ÄĤ": 7887,
      "ĠMad": 7888,
      "Ġperpendicular": 7889,
      "Ġannihil": 7890,
      "ipp": 7891,
      "Ġrew": 7892,
      "avirus": 7893,
      "mbox": 7894,
      "asive": 7895,
      "Ġsuicide": 7896,
      "ilbert": 7897,
      "Ġenzym": 7898,
      "Ġpregnancy": 7899,
      "Ġphotometry": 7900,
      "Ġmedications": 7901,
      "style": 7902,
      "reatment": 7903,
      "tick": 7904,
      "Ġ91": 7905,
      "Ġnursing": 7906,
      "ĠâĢĶ": 7907,
      "Ġprice": 7908,
      "Ġentirely": 7909,
      "Ġoperating": 7910,
      "Ġpepti": 7911,
      "Ġfermions": 7912,
      "Ġempty": 7913,
      "ĠPreliminary": 7914,
      "Ġgets": 7915,
      "Ġenvelope": 7916,
      "ĠBrief": 7917,
      "kely": 7918,
      "ďă": 7919,
      "Ġintention": 7920,
      "Ġ130": 7921,
      "Ġart": 7922,
      "Ġmixture": 7923,
      "ĠVirgin": 7924,
      "ufact": 7925,
      "Ġresponsibility": 7926,
      "Ġisotropic": 7927,
      "Ġpopular": 7928,
      "uction": 7929,
      "Ġrefs": 7930,
      "kl": 7931,
      "Ġhier": 7932,
      "Ġ92": 7933,
      "Ġviewed": 7934,
      "Ġaz": 7935,
      "lder": 7936,
      "Ġrenormalization": 7937,
      "Ġalien": 7938,
      "Ġnotes": 7939,
      "Ġdiscontin": 7940,
      "Ġballot": 7941,
      "ĠMid": 7942,
      "ĠHAC": 7943,
      "ĠFourth": 7944,
      "andra": 7945,
      "ĠCDC": 7946,
      "Ġrespir": 7947,
      "Ġidentifying": 7948,
      "Ġnaturally": 7949,
      "ogenesis": 7950,
      "Ġexposed": 7951,
      "Ġdocumentation": 7952,
      "Ġintake": 7953,
      "ĠRequest": 7954,
      "Ġdepression": 7955,
      "LIS": 7956,
      "Ġsituations": 7957,
      "Ġauto": 7958,
      "Ġdesired": 7959,
      "244": 7960,
      "==": 7961,
      "Ġmoves": 7962,
      "Ġdiffuse": 7963,
      "ĠJoint": 7964,
      "Ġjets": 7965,
      "agers": 7966,
      "ĠLetter": 7967,
      "Ġcircles": 7968,
      "CNN": 7969,
      "Ġresonant": 7970,
      "Ġparole": 7971,
      "ĠNorthern": 7972,
      "Ġ140": 7973,
      "ĠHom": 7974,
      "Ġpoisson": 7975,
      "Ġsimplicity": 7976,
      "Ġnt": 7977,
      "ĠForce": 7978,
      "ova": 7979,
      "Ġinterfer": 7980,
      "PONSE": 7981,
      "Ġtrials": 7982,
      "ĠCL": 7983,
      "Ġsuperconducting": 7984,
      "Ġrg": 7985,
      "ashion": 7986,
      "Ġcompounds": 7987,
      "ĠVICE": 7988,
      "Ġ134": 7989,
      "ousing": 7990,
      "Ġenvironmental": 7991,
      "Ġmatters": 7992,
      "Ġcommunities": 7993,
      "]{": 7994,
      "Ġdepos": 7995,
      "Ġembedded": 7996,
      "bor": 7997,
      "Ġhierarch": 7998,
      "Ġalcohol": 7999,
      "Ġswit": 8000,
      "Ġordinary": 8001,
      "Ġobtaining": 8002,
      "ĠĠĠĠĠĠ": 8003,
      "]@": 8004,
      "this": 8005,
      "Ġcouncil": 8006,
      "Ġinduction": 8007,
      "Ġcompati": 8008,
      "MR": 8009,
      "inois": 8010,
      "ĠPost": 8011,
      "Ġboundaries": 8012,
      "Ġ129": 8013,
      "iscal": 8014,
      "Ġengaged": 8015,
      "Ġpermitted": 8016,
      "ointed": 8017,
      "ola": 8018,
      "Ġfold": 8019,
      "Ġneutrinos": 8020,
      "ĠMrs": 8021,
      "Ġfu": 8022,
      "242": 8023,
      "Ġexperts": 8024,
      "Ġjury": 8025,
      "Ġtrust": 8026,
      "Ġtouch": 8027,
      "247": 8028,
      "Ġspokesman": 8029,
      "ĠPLAINTIFF": 8030,
      "Ġretal": 8031,
      "ĠLeave": 8032,
      "scri": 8033,
      "Ġwire": 8034,
      "ounted": 8035,
      "Ġprojected": 8036,
      "Ġcum": 8037,
      "Ġincidents": 8038,
      "Ġchrom": 8039,
      "Ġvor": 8040,
      "246": 8041,
      "anta": 8042,
      "Ġspring": 8043,
      "Ġplots": 8044,
      "Ġkick": 8045,
      "ek": 8046,
      "DOC": 8047,
      "iry": 8048,
      "Ġchains": 8049,
      "Ġconstitute": 8050,
      "Ġisolation": 8051,
      "necess": 8052,
      "Ġinsu": 8053,
      "Ġsegregation": 8054,
      "Ġcloser": 8055,
      "Ġphenomena": 8056,
      "Ġvisits": 8057,
      "Ġaccused": 8058,
      "Ġresc": 8059,
      "Ġfelt": 8060,
      "pert": 8061,
      "hl": 8062,
      "lass": 8063,
      "Ġhospit": 8064,
      "ogenic": 8065,
      "sea": 8066,
      "IB": 8067,
      "ĠPhil": 8068,
      "Ġsymb": 8069,
      "254": 8070,
      "itors": 8071,
      "usp": 8072,
      "Ġcurren": 8073,
      "utri": 8074,
      "ifies": 8075,
      "ĠTranscript": 8076,
      "Ġvul": 8077,
      "Ġdocumented": 8078,
      "Ġdesignated": 8079,
      "Ġtherapeu": 8080,
      "Ġreceipt": 8081,
      "Ġformulation": 8082,
      "248": 8083,
      "Ġsad": 8084,
      "ERS": 8085,
      "ette": 8086,
      "Ġrestrictions": 8087,
      "sen": 8088,
      "Ġsusceptibility": 8089,
      "Ġarrange": 8090,
      "Â£": 8091,
      "Ġdomains": 8092,
      "ĠMand": 8093,
      "itig": 8094,
      "Ġiter": 8095,
      "Ġhands": 8096,
      "Ġepid": 8097,
      "Ġuniformly": 8098,
      "ĠJoseph": 8099,
      "Ġeffic": 8100,
      "Ġdrive": 8101,
      "ĠAre": 8102,
      "Ġfoundation": 8103,
      "Ġprobabilities": 8104,
      "ĠGreen": 8105,
      "habilitation": 8106,
      "Ġautoma": 8107,
      "mass": 8108,
      "Ġproduces": 8109,
      "ucle": 8110,
      "Ġmurder": 8111,
      "Ġknew": 8112,
      "Ġflight": 8113,
      "bc": 8114,
      "Ġunlike": 8115,
      "Ġ111": 8116,
      "Ġbub": 8117,
      "Ġcycles": 8118,
      "oscopic": 8119,
      "ears": 8120,
      "Ġartery": 8121,
      "ĠCiv": 8122,
      "ĠChicago": 8123,
      "ĠCap": 8124,
      "ïĤ": 8125,
      "Ġtoler": 8126,
      "till": 8127,
      "Ġspacetime": 8128,
      "place": 8129,
      "Ġburst": 8130,
      "Ġshoot": 8131,
      "ighter": 8132,
      "253": 8133,
      "Ġphysically": 8134,
      "Ġconject": 8135,
      "Ġanalogous": 8136,
      "Ġexcellent": 8137,
      "ĠColumb": 8138,
      "win": 8139,
      "gg": 8140,
      "illance": 8141,
      "Ġpcr": 8142,
      "ĠInjunction": 8143,
      "Ġprinciples": 8144,
      "Ġcontinuing": 8145,
      "Ġcast": 8146,
      "Ġ1980": 8147,
      "Ġretur": 8148,
      "Ġ128": 8149,
      "Ġvib": 8150,
      "Ġmild": 8151,
      "ĠOpport": 8152,
      "ĠProf": 8153,
      "Ġdispute": 8154,
      "Ġadjusted": 8155,
      "Ġlesion": 8156,
      "ĠOhio": 8157,
      "Ġfeas": 8158,
      "Ġ1000": 8159,
      "Ġlateral": 8160,
      "ĠEnglish": 8161,
      "Ġinvolvement": 8162,
      "Ġmanifest": 8163,
      "ĠKing": 8164,
      "Ġoxid": 8165,
      "ANCE": 8166,
      "ĠTur": 8167,
      "ords": 8168,
      "Ġinstitutions": 8169,
      "Ġintegrals": 8170,
      "Ġeyes": 8171,
      "Ġbudget": 8172,
      "ELL": 8173,
      "eding": 8174,
      "akes": 8175,
      "Ġ1985": 8176,
      "Ġgh": 8177,
      "Ġcardiac": 8178,
      "appa": 8179,
      "DU": 8180,
      "Ġcopies": 8181,
      "Ġadvance": 8182,
      "idal": 8183,
      "Ġimaginary": 8184,
      "Ġfulf": 8185,
      "Ġsenior": 8186,
      "ĠFore": 8187,
      "Ġinvest": 8188,
      "Ġunity": 8189,
      "Ġnewton": 8190,
      "Ġpixel": 8191,
      "Ġsummer": 8192,
      "ĠSome": 8193,
      "ĠRef": 8194,
      "Ġmomenta": 8195,
      "Ġpaths": 8196,
      "ĠMartin": 8197,
      "ella": 8198,
      "ĠGo": 8199,
      "Ġconsistently": 8200,
      "bound": 8201,
      "\\,": 8202,
      "my": 8203,
      "Ġinac": 8204,
      "You": 8205,
      "using": 8206,
      "ractions": 8207,
      "ulf": 8208,
      "Ġcc": 8209,
      "Ġkeeping": 8210,
      "htt": 8211,
      "Ġahead": 8212,
      "Ġlinks": 8213,
      "ĠWood": 8214,
      "rogen": 8215,
      "}[": 8216,
      "Ġofthe": 8217,
      "Ġcapture": 8218,
      "Ġcellular": 8219,
      "Ġstrictly": 8220,
      "Ġages": 8221,
      "Ġvanishing": 8222,
      "ĠMAR": 8223,
      "aton": 8224,
      "Ġanyone": 8225,
      "scaled": 8226,
      "lt": 8227,
      "ĠKe": 8228,
      "256": 8229,
      "ship": 8230,
      "Ġdeny": 8231,
      "Ġperiph": 8232,
      "ERE": 8233,
      "idel": 8234,
      "cur": 8235,
      "eals": 8236,
      "ĠTraining": 8237,
      "Ġghz": 8238,
      "ĠScott": 8239,
      "Ġimpossible": 8240,
      "Ġrect": 8241,
      "Ġfaint": 8242,
      "400": 8243,
      "Ġske": 8244,
      "Ġoste": 8245,
      "ĠProv": 8246,
      "Ġschedule": 8247,
      "Ġcodes": 8248,
      "Ġloops": 8249,
      "ĠUnit": 8250,
      "ĠSTAFF": 8251,
      "langle": 8252,
      "Ġresonances": 8253,
      "ĠDay": 8254,
      "Ġtube": 8255,
      "Ġincons": 8256,
      "_-": 8257,
      "pulation": 8258,
      "251": 8259,
      "Ġcollective": 8260,
      "bp": 8261,
      "Ġcentered": 8262,
      "ellular": 8263,
      "Ġdismissed": 8264,
      "Ġfilling": 8265,
      "unic": 8266,
      "Ġreplace": 8267,
      "arding": 8268,
      "ĠMal": 8269,
      "radi": 8270,
      "Ġisot": 8271,
      "Ġtrunc": 8272,
      "Ġpy": 8273,
      "oral": 8274,
      "ĠCharles": 8275,
      "Ġadequately": 8276,
      "Ġdental": 8277,
      "ĠInvestig": 8278,
      "Ġtunneling": 8279,
      "Ġinterior": 8280,
      "Ġviolates": 8281,
      "(-": 8282,
      "Ġbaryon": 8283,
      "ĠFlo": 8284,
      "Ġtransp": 8285,
      "Ġcited": 8286,
      "leq": 8287,
      "Ġhistor": 8288,
      "Ġthermodynamic": 8289,
      "Ġsecure": 8290,
      "Ġpropose": 8291,
      "Ġtrajectories": 8292,
      "oto": 8293,
      "idge": 8294,
      "Ġlatest": 8295,
      "tian": 8296,
      "Ġranges": 8297,
      "Ġplanets": 8298,
      "ĠDkt": 8299,
      "ĠBritain": 8300,
      "ectives": 8301,
      "Ġends": 8302,
      "istan": 8303,
      "ĠMembers": 8304,
      "Ġflows": 8305,
      "aining": 8306,
      "Ġvascular": 8307,
      "Ġ135": 8308,
      "che": 8309,
      "Ġtu": 8310,
      "Ġspectroscopic": 8311,
      "ĠDemoc": 8312,
      "Ġorganizations": 8313,
      "Ġmetallic": 8314,
      "Ġvess": 8315,
      "Ġcolors": 8316,
      "uity": 8317,
      "Ġsupra": 8318,
      "Ġcompensation": 8319,
      "ITH": 8320,
      "ĠCorrections": 8321,
      "ĠIV": 8322,
      "han": 8323,
      "ĠFrancisco": 8324,
      "Ġprem": 8325,
      "Ġretro": 8326,
      "Ġpresentation": 8327,
      "Ġdegener": 8328,
      "Ġstream": 8329,
      "Ġsr": 8330,
      ")$": 8331,
      "Ġunconstitutional": 8332,
      "Ġadiabatic": 8333,
      "Ġkin": 8334,
      "Ġcombining": 8335,
      "ovascular": 8336,
      "Ġtemporary": 8337,
      "ĠFourteenth": 8338,
      "ĠFace": 8339,
      "Ġattacks": 8340,
      "Ġgraphene": 8341,
      "yers": 8342,
      "ĠDACA": 8343,
      "Ġcarrying": 8344,
      "view": 8345,
      "tors": 8346,
      "Ġfaster": 8347,
      "sin": 8348,
      "ĠDaniel": 8349,
      "Ġpref": 8350,
      "monary": 8351,
      "Ġshorter": 8352,
      "ĠHospital": 8353,
      "Ġtools": 8354,
      "270": 8355,
      "Ġtrajectory": 8356,
      "Ġoct": 8357,
      "Ġdischarge": 8358,
      "Ġven": 8359,
      ";\\": 8360,
      "plan": 8361,
      "agger": 8362,
      "illa": 8363,
      "Ġcarcin": 8364,
      "Ġemail": 8365,
      "Ġtet": 8366,
      "Ġmaster": 8367,
      "Ġconvenient": 8368,
      "uvenile": 8369,
      "Ġhadron": 8370,
      "AP": 8371,
      "Ġgenerating": 8372,
      "Ġvo": 8373,
      "veness": 8374,
      "Ġmri": 8375,
      "Ġconstrained": 8376,
      "Ġbill": 8377,
      "Ġrotational": 8378,
      "Ġcomposed": 8379,
      "ĠCommunity": 8380,
      "Ġtestified": 8381,
      "scaledwidth": 8382,
      "TING": 8383,
      "Ġshared": 8384,
      "\")": 8385,
      "ĠPetitioners": 8386,
      "level": 8387,
      "When": 8388,
      "FOR": 8389,
      "Ġfiber": 8390,
      "Ġfloor": 8391,
      "280": 8392,
      "month": 8393,
      "Ġmediated": 8394,
      "DQ": 8395,
      "appropri": 8396,
      "dy": 8397,
      "Ġdefining": 8398,
      "Ġmanufact": 8399,
      "Ġwild": 8400,
      "kers": 8401,
      "paragraph": 8402,
      "Ġaliens": 8403,
      "bro": 8404,
      "fold": 8405,
      "Ġallegedly": 8406,
      "Ġparity": 8407,
      "Ġwavelengths": 8408,
      "Ġescape": 8409,
      "Ġdefects": 8410,
      "Ġinduce": 8411,
      "Ġchallenging": 8412,
      "Ġterminal": 8413,
      "Ġfailing": 8414,
      "Ġstroke": 8415,
      "ĠDEP": 8416,
      "icus": 8417,
      "ancies": 8418,
      "mid": 8419,
      "Ġanterior": 8420,
      "Ġcommunications": 8421,
      "Ġwound": 8422,
      "Ġcreation": 8423,
      "aud": 8424,
      "Ġrisks": 8425,
      "Ġvacc": 8426,
      "Ġcoroll": 8427,
      "Ġoscillation": 8428,
      "Ġweap": 8429,
      "266": 8430,
      "259": 8431,
      "Ġorganized": 8432,
      "varepsilon": 8433,
      "Ġsuppression": 8434,
      "missible": 8435,
      "Ġweakly": 8436,
      "Ġreconstruction": 8437,
      "ĠGRAN": 8438,
      "(@": 8439,
      "Ġenjoy": 8440,
      "Ġrats": 8441,
      "ĠHam": 8442,
      "cap": 8443,
      "006": 8444,
      "Ġimpose": 8445,
      "Ġillegal": 8446,
      "ĠMaster": 8447,
      "rench": 8448,
      "Ġdifficulty": 8449,
      "Ġsingularity": 8450,
      "Ġtro": 8451,
      "ĠInterven": 8452,
      "Ġvoter": 8453,
      "amination": 8454,
      "265": 8455,
      "fi": 8456,
      "Ġtelephone": 8457,
      "Ġphotograph": 8458,
      "td": 8459,
      "Ġpartners": 8460,
      "Ġsne": 8461,
      "Ġunlikely": 8462,
      "Ġcuts": 8463,
      ".:": 8464,
      "TED": 8465,
      "Ġrely": 8466,
      "sl": 8467,
      "ĠProtection": 8468,
      "Ġdeviations": 8469,
      "vd": 8470,
      "Ġtub": 8471,
      "âĢĿ),": 8472,
      "EMOR": 8473,
      "Ġcomposite": 8474,
      "ĠCommon": 8475,
      "Ġinflammation": 8476,
      "ĠChina": 8477,
      "Ġfab": 8478,
      "Ġobservable": 8479,
      "forcement": 8480,
      "ĠINC": 8481,
      "Ġwatch": 8482,
      "Ġplaying": 8483,
      "Ġelementary": 8484,
      "Ġnit": 8485,
      "Ġscr": 8486,
      "EA": 8487,
      "Ph": 8488,
      "ĠOper": 8489,
      "Ġattempted": 8490,
      "Ġefficacy": 8491,
      "aling": 8492,
      "Ġ250": 8493,
      "ĠJackson": 8494,
      "Ġdisplayed": 8495,
      "TIES": 8496,
      "anged": 8497,
      "version": 8498,
      "Ġinstitutional": 8499,
      "ditionally": 8500,
      "Ġ102": 8501,
      "Ġsignaling": 8502,
      "thes": 8503,
      "Ġstor": 8504,
      "Ġobservables": 8505,
      "person": 8506,
      "Ġgrb": 8507,
      "United": 8508,
      "Ġtherapeutic": 8509,
      "Ġcouples": 8510,
      "ĠOpportunity": 8511,
      "Ġdeposition": 8512,
      "At": 8513,
      "Ġtargeted": 8514,
      "Ġempirical": 8515,
      "ĠPUB": 8516,
      "ĠMCSO": 8517,
      "Ġscaled": 8518,
      "Ġbeat": 8519,
      "cp": 8520,
      "Ġaggreg": 8521,
      "RS": 8522,
      "Ġadministered": 8523,
      "252": 8524,
      "ANDUM": 8525,
      "een": 8526,
      "Ġfairly": 8527,
      "Ġevident": 8528,
      "empor": 8529,
      "tra": 8530,
      "asts": 8531,
      "Ġ105": 8532,
      "Ġruling": 8533,
      "Ġdefines": 8534,
      "Ġconformal": 8535,
      "ĠBal": 8536,
      "đđ": 8537,
      "Ġultimately": 8538,
      "Ġdefect": 8539,
      "burg": 8540,
      "Ġbuff": 8541,
      "inth": 8542,
      "ĠAppeals": 8543,
      "ĠScotland": 8544,
      "ĠRelease": 8545,
      "Ġsect": 8546,
      "Ġfashion": 8547,
      "erring": 8548,
      "ĠRESPONSE": 8549,
      "303": 8550,
      "Ġmalign": 8551,
      "onz": 8552,
      "Ġhuge": 8553,
      "Ġtherein": 8554,
      "Ġliability": 8555,
      "Ġsuspic": 8556,
      "Ġincub": 8557,
      "Ġlabeled": 8558,
      "1997": 8559,
      "Ġemotional": 8560,
      "cu": 8561,
      "Ġintersection": 8562,
      "EMORANDUM": 8563,
      "bin": 8564,
      "Ġ1981": 8565,
      "Ġaffects": 8566,
      "Ġpin": 8567,
      "Ġgeodes": 8568,
      "Ġimpair": 8569,
      "essor": 8570,
      "ipped": 8571,
      "267": 8572,
      "|\\": 8573,
      "ĠPur": 8574,
      "Ġdiet": 8575,
      ")-(": 8576,
      "Ġlove": 8577,
      "Ġspir": 8578,
      "},": 8579,
      "nas": 8580,
      "257": 8581,
      "All": 8582,
      "Ġfluctuation": 8583,
      "aly": 8584,
      "ln": 8585,
      "while": 8586,
      "ĠManchester": 8587,
      "',": 8588,
      "Ġbow": 8589,
      "Ġstore": 8590,
      "Ġroll": 8591,
      "Ġwaiver": 8592,
      "Ġpathway": 8593,
      "Ġfluores": 8594,
      "Ġpil": 8595,
      "ochem": 8596,
      "qquad": 8597,
      "Ġreflected": 8598,
      "Ġroad": 8599,
      "Ġdecades": 8600,
      "Ġreproduce": 8601,
      "ilty": 8602,
      "Ġsupervision": 8603,
      "Ġquestionna": 8604,
      "Ġmathematical": 8605,
      "MH": 8606,
      "Ġextrap": 8607,
      "ĠTHAT": 8608,
      "Ġdele": 8609,
      "ĠLegal": 8610,
      "ometer": 8611,
      "Ġ180": 8612,
      "Ġech": 8613,
      "Ġleaves": 8614,
      "Ġansw": 8615,
      "Ġnegoti": 8616,
      "Ġintent": 8617,
      "Ġlinearly": 8618,
      "aired": 8619,
      "Ġpg": 8620,
      "Ġtrigger": 8621,
      "Ġmarkov": 8622,
      "Ġoutflow": 8623,
      "Ġdenial": 8624,
      "ĠAny": 8625,
      "Ġpole": 8626,
      "like": 8627,
      "Ġba": 8628,
      "ĠWH": 8629,
      "269": 8630,
      "268": 8631,
      "Ġroutine": 8632,
      "Ġspectroscopy": 8633,
      "eller": 8634,
      "Ġmarg": 8635,
      "states": 8636,
      "orado": 8637,
      "Ġscene": 8638,
      "ivers": 8639,
      "Ġprime": 8640,
      "elly": 8641,
      "ologically": 8642,
      "Ġchallenged": 8643,
      "CI": 8644,
      "Ġprobable": 8645,
      "Ġwarrant": 8646,
      "Ġaspect": 8647,
      "ĠProcess": 8648,
      "ĠCOMPLAINT": 8649,
      "Ġpenalty": 8650,
      "Ġdefinitions": 8651,
      "Ġstudying": 8652,
      "idavit": 8653,
      "ĠSur": 8654,
      "Ġreplic": 8655,
      "night": 8656,
      "emy": 8657,
      "Ġgrants": 8658,
      "Â·Â·": 8659,
      "risons": 8660,
      "Ġ103": 8661,
      "ĠRoy": 8662,
      "Ġnod": 8663,
      "To": 8664,
      "261": 8665,
      "Ġattempts": 8666,
      "ĠWales": 8667,
      "Ġposted": 8668,
      "play": 8669,
      "Ġsettings": 8670,
      "Ġsuffering": 8671,
      "mo": 8672,
      "ĠFacility": 8673,
      "zero": 8674,
      "Ġoptions": 8675,
      "Ġ1984": 8676,
      "Ġencoun": 8677,
      "Ġinfections": 8678,
      "Ġkne": 8679,
      "Ġrecomb": 8680,
      "abama": 8681,
      "Ġapplicants": 8682,
      "attered": 8683,
      "ori": 8684,
      "ĠIllinois": 8685,
      "isen": 8686,
      "Ġraise": 8687,
      "BA": 8688,
      "Ġbare": 8689,
      "ype": 8690,
      "Ġtour": 8691,
      "Ġlifetime": 8692,
      "ĠAccordingly": 8693,
      "ua": 8694,
      "275": 8695,
      "Ġmaxim": 8696,
      "Ġverify": 8697,
      "Ġpurely": 8698,
      "plete": 8699,
      "hep": 8700,
      "Ġcompris": 8701,
      "Ġpairing": 8702,
      "Ġsubstrate": 8703,
      "sa": 8704,
      "citing": 8705,
      "LU": 8706,
      "amine": 8707,
      "Ġmetabol": 8708,
      "EMENT": 8709,
      "tin": 8710,
      "Ġcondensate": 8711,
      "Ġpand": 8712,
      "DA": 8713,
      "Ġinjured": 8714,
      "Ġvaries": 8715,
      "Ġdoor": 8716,
      "ĠFacebook": 8717,
      "Ġlengths": 8718,
      "Ġexpenses": 8719,
      "Ġhappen": 8720,
      "hire": 8721,
      "Ġgate": 8722,
      "inf": 8723,
      "uer": 8724,
      "Ġfiles": 8725,
      "Ġaxial": 8726,
      "mant": 8727,
      "Ġbelieves": 8728,
      "arse": 8729,
      "Ġtopology": 8730,
      "WKH": 8731,
      "Ġsod": 8732,
      "aught": 8733,
      "Ġtrained": 8734,
      "Ġoccurrence": 8735,
      "trans": 8736,
      "Ġswe": 8737,
      "arth": 8738,
      "Ġkinema": 8739,
      "Ġallege": 8740,
      "Ġmeaningful": 8741,
      "Ġstem": 8742,
      "Ġcorollary": 8743,
      "Ï®": 8744,
      "Ġoil": 8745,
      "Ġarcs": 8746,
      "Ġreverse": 8747,
      "301": 8748,
      "Ġoccurring": 8749,
      "Ġmodulation": 8750,
      "TA": 8751,
      "ĠLLC": 8752,
      "Ġrespiratory": 8753,
      "ĠLib": 8754,
      "stan": 8755,
      "mia": 8756,
      "Ġequally": 8757,
      "Ġexecution": 8758,
      "ela": 8759,
      "Ġpowerful": 8760,
      "Ġdatas": 8761,
      "Ġbmi": 8762,
      "How": 8763,
      "1998": 8764,
      "Ġblocks": 8765,
      "Ġhypertension": 8766,
      "Ġminority": 8767,
      "CR": 8768,
      "Ġconsistency": 8769,
      "evin": 8770,
      "mond": 8771,
      "278": 8772,
      "Ġepis": 8773,
      "Ġcham": 8774,
      "Ġexplo": 8775,
      "ĠPat": 8776,
      "ividually": 8777,
      "ĠRespond": 8778,
      "Ġqualitative": 8779,
      "adder": 8780,
      "Ġranging": 8781,
      "Ġscenarios": 8782,
      "ĠSam": 8783,
      "ĠDavis": 8784,
      "ĠEuropean": 8785,
      "ĠStud": 8786,
      "ocardi": 8787,
      "Ġthir": 8788,
      "ĊĠĠĠĠĠĠĠĠĠĠĠĠĠĠĠĠĠĠĠĠĠĠĠĠĠĠĠ": 8789,
      "clear": 8790,
      "Ġstret": 8791,
      "ounce": 8792,
      "ambridge": 8793,
      "Ġprotective": 8794,
      "Ġgovern": 8795,
      "Ġweights": 8796,
      "ĠBre": 8797,
      "Ġbosons": 8798,
      "Ġneb": 8799,
      "Ġmicroscopic": 8800,
      "273": 8801,
      "Ġmission": 8802,
      "umab": 8803,
      "Ġconductivity": 8804,
      "Ġice": 8805,
      "Ġturbulence": 8806,
      "Ad": 8807,
      "283": 8808,
      "ĠAdministrator": 8809,
      "Ġhappens": 8810,
      "285": 8811,
      "ylvan": 8812,
      "Ġvirtual": 8813,
      "iar": 8814,
      "Ġcoach": 8815,
      "Ġmisconduct": 8816,
      "Ġequality": 8817,
      "Ġ106": 8818,
      "Ġimplementing": 8819,
      "reduc": 8820,
      "Ġevid": 8821,
      "Ġrefuge": 8822,
      "Ġdemonstrates": 8823,
      "Ġrelationships": 8824,
      "Ġpsychiatric": 8825,
      "serv": 8826,
      "Ġskills": 8827,
      "Ġlap": 8828,
      "Ġconsiderable": 8829,
      "ĠVice": 8830,
      "ĠGroup": 8831,
      "Ġrepresentations": 8832,
      "enance": 8833,
      "Ġattributed": 8834,
      "including": 8835,
      "Ġdeadline": 8836,
      "aine": 8837,
      "Ġdisturb": 8838,
      "Ġpictured": 8839,
      "parable": 8840,
      "Ġunusual": 8841,
      "omestic": 8842,
      "ĠHomeland": 8843,
      "males": 8844,
      "Ġjapan": 8845,
      "Ġrna": 8846,
      "ĠWhat": 8847,
      "Ġjobs": 8848,
      "Ġbank": 8849,
      "Ġwaiting": 8850,
      "tri": 8851,
      "282": 8852,
      "Ġasympto": 8853,
      "Ġmerely": 8854,
      "Ġstory": 8855,
      "Ġhiv": 8856,
      "ĠSocial": 8857,
      "Ġapparently": 8858,
      "Ġpromote": 8859,
      "Ġprejud": 8860,
      "OHN": 8861,
      "Ġshifted": 8862,
      "262": 8863,
      "Ġagg": 8864,
      "aper": 8865,
      "Ġdissipation": 8866,
      "Ġfeet": 8867,
      "THE": 8868,
      "ENDAN": 8869,
      "Ġaccounts": 8870,
      "Ġoptimization": 8871,
      "Ġsuspected": 8872,
      "Par": 8873,
      "Ġpages": 8874,
      "Ġstarts": 8875,
      "Ġcompl": 8876,
      "Ġclustering": 8877,
      "men": 8878,
      "olid": 8879,
      "Ġcapital": 8880,
      "Ġlegiti": 8881,
      "stream": 8882,
      "Ġcolour": 8883,
      "ĠAssistant": 8884,
      "Ġtissues": 8885,
      "Ġvulner": 8886,
      "Ġjoin": 8887,
      "pton": 8888,
      "Ġprescribed": 8889,
      "Ġpanc": 8890,
      "Ġconstitu": 8891,
      "nsylvan": 8892,
      "Ġneglected": 8893,
      "Ġgirls": 8894,
      "ĠRules": 8895,
      "Ġconflict": 8896,
      "Ġsud": 8897,
      "Ġslowly": 8898,
      "Ġcytok": 8899,
      "ĠExtension": 8900,
      "LISH": 8901,
      "004": 8902,
      "NA": 8903,
      "ucl": 8904,
      "Ġexpanding": 8905,
      "aa": 8906,
      "Ġrein": 8907,
      "Ġtalk": 8908,
      "Ġadjud": 8909,
      "Ġstopped": 8910,
      "esity": 8911,
      "ĠMental": 8912,
      "ĠMIN": 8913,
      "Ġmhz": 8914,
      "Ġaccurately": 8915,
      "Ġmig": 8916,
      "Ġlooked": 8917,
      "opp": 8918,
      "Ġlocalization": 8919,
      "Ġinadequate": 8920,
      "ĠDon": 8921,
      "Ġlhc": 8922,
      "Ġcritic": 8923,
      "axis": 8924,
      "ĠFBI": 8925,
      "cell": 8926,
      "274": 8927,
      "inese": 8928,
      "Ġreaches": 8929,
      "Ġlived": 8930,
      "Ġmorphology": 8931,
      "Ġunderwent": 8932,
      "Ġmol": 8933,
      "ERTI": 8934,
      "271": 8935,
      "Ġconversion": 8936,
      "break": 8937,
      "pool": 8938,
      "lege": 8939,
      "Ġspecim": 8940,
      "ĠFar": 8941,
      "Ġcognitive": 8942,
      "Ġinhom": 8943,
      "ĠPA": 8944,
      "etric": 8945,
      "Ġtempl": 8946,
      "Ġconstitution": 8947,
      "itively": 8948,
      "eth": 8949,
      "net": 8950,
      "nsylvania": 8951,
      "Ġoutl": 8952,
      "ĠRet": 8953,
      "Ġbodies": 8954,
      "Ġru": 8955,
      "279": 8956,
      "Ġdiabe": 8957,
      "Ġalgebraic": 8958,
      "Ġrecurrence": 8959,
      "phasis": 8960,
      "Ġseq": 8961,
      "Ġindustry": 8962,
      "ĠFrank": 8963,
      "Ġdy": 8964,
      "Ġdimensionless": 8965,
      "Not": 8966,
      "Ġseconds": 8967,
      "clic": 8968,
      "Ġintrac": 8969,
      "Ġsupplement": 8970,
      "âĢĺ": 8971,
      "Ġproc": 8972,
      "305": 8973,
      "orters": 8974,
      "Ġ136": 8975,
      "fa": 8976,
      "ÂŃ": 8977,
      "Ġproducing": 8978,
      "Ġepith": 8979,
      "Ġsupervisors": 8980,
      "ĠColorado": 8981,
      "Ġexem": 8982,
      "Ġprogression": 8983,
      "Ġmuc": 8984,
      "Ġ115": 8985,
      "ĠAndrew": 8986,
      "Ġcareer": 8987,
      "Ġschemes": 8988,
      "Ġelevated": 8989,
      "Ġmechanics": 8990,
      "rell": 8991,
      "Ġplant": 8992,
      "EAL": 8993,
      "ĠMot": 8994,
      "iner": 8995,
      "ĠTwo": 8996,
      "Ġseeks": 8997,
      "Ġhubble": 8998,
      "ĠCur": 8999,
      "Ġoriginally": 9000,
      "Ġassemb": 9001,
      "ĠHonorable": 9002,
      "Ġrepresentatives": 9003,
      "Ġparton": 9004,
      "Ġpunish": 9005,
      "ĠDOJ": 9006,
      "aken": 9007,
      "ORDER": 9008,
      "'d": 9009,
      "ĠTV": 9010,
      "Ġtidal": 9011,
      "ĠJUDG": 9012,
      "Ġentering": 9013,
      "ergency": 9014,
      "Ġpostoperative": 9015,
      "Ġ104": 9016,
      "Ġreading": 9017,
      "oon": 9018,
      "ĠLab": 9019,
      "Ġrealized": 9020,
      "ĠArm": 9021,
      "0000": 9022,
      "ĠMoreover": 9023,
      "Ġmarried": 9024,
      "etts": 9025,
      "Ġprovider": 9026,
      "Ġneck": 9027,
      "iat": 9028,
      "Ġmodifications": 9029,
      "1996": 9030,
      "Ġfemales": 9031,
      "rael": 9032,
      "Ġsupersymmet": 9033,
      "Ġpseudo": 9034,
      "Ġinquiry": 9035,
      "oding": 9036,
      "gue": 9037,
      "Ġprogen": 9038,
      "Ġindirect": 9039,
      "ĠRepresent": 9040,
      "Ġupdated": 9041,
      "TON": 9042,
      "ĠRO": 9043,
      "ĠGeorg": 9044,
      "LV": 9045,
      "Ġda": 9046,
      "Ġcompatible": 9047,
      "288": 9048,
      "Ġproceeding": 9049,
      "Ġhilbert": 9050,
      "Ġphysician": 9051,
      "intenance": 9052,
      "ĠIran": 9053,
      "277": 9054,
      "Ġmotivated": 9055,
      "Ġfans": 9056,
      "Ġfaces": 9057,
      "Ġtrap": 9058,
      "UTE": 9059,
      "Ġcircuit": 9060,
      "%)": 9061,
      "uate": 9062,
      "Ġdelayed": 9063,
      "Ġprevention": 9064,
      "Ġarrived": 9065,
      "1103": 9066,
      "Ġreadily": 9067,
      "Ġunfort": 9068,
      "Ġcompletion": 9069,
      "Ġdisag": 9070,
      "tificate": 9071,
      "Ġsquares": 9072,
      "Ġneurons": 9073,
      "/@": 9074,
      "ws": 9075,
      "osities": 9076,
      "Ġpla": 9077,
      "ĠFA": 9078,
      "uan": 9079,
      "gt": 9080,
      "272": 9081,
      "Ġanticip": 9082,
      "Ġquen": 9083,
      "Ġduties": 9084,
      "Ġnames": 9085,
      "Ġvisited": 9086,
      "Ġchecked": 9087,
      "Ġacknowledge": 9088,
      "Ġreflects": 9089,
      "hether": 9090,
      "inder": 9091,
      "Ġsummarized": 9092,
      "elli": 9093,
      "Ġsend": 9094,
      "Ġath": 9095,
      "md": 9096,
      "Ġreb": 9097,
      "Ġdecline": 9098,
      "Ġhair": 9099,
      "ĠAlabama": 9100,
      "Ġflavor": 9101,
      "Ġintroducing": 9102,
      "yroid": 9103,
      "Ġdetectors": 9104,
      "ĠTwitter": 9105,
      "Ġaccordingly": 9106,
      "pdf": 9107,
      "Ġtee": 9108,
      "reek": 9109,
      ".âĢĿ).": 9110,
      "Ġprospective": 9111,
      "Ġimplications": 9112,
      "Ġinn": 9113,
      "coming": 9114,
      "ĠFifth": 9115,
      "Ġobesity": 9116,
      "Ġbinaries": 9117,
      "Ġpolynomials": 9118,
      "Ġhalos": 9119,
      "Ġnewly": 9120,
      "ÆĮ": 9121,
      "ercial": 9122,
      "ĠColumbia": 9123,
      "ĠVirginia": 9124,
      "Ġillustrate": 9125,
      "Ġwitnesses": 9126,
      "Ġpb": 9127,
      "Ġinfinity": 9128,
      "Ġpulmonary": 9129,
      "Ġjustice": 9130,
      "Ġbag": 9131,
      ")+": 9132,
      "284": 9133,
      "lr": 9134,
      "teness": 9135,
      "Ġka": 9136,
      "ĠMonitoring": 9137,
      "iological": 9138,
      "Ġperipheral": 9139,
      "312": 9140,
      "Ġtranscription": 9141,
      "Ġls": 9142,
      "Ġreveals": 9143,
      "UNITED": 9144,
      "276": 9145,
      "Ġtrib": 9146,
      "dec": 9147,
      "Ġinsufficient": 9148,
      "Ġcoherence": 9149,
      "Ġinterestingly": 9150,
      "ĠTrial": 9151,
      "Ġenfor": 9152,
      "Ġelliptic": 9153,
      "Ġni": 9154,
      "Ġcredit": 9155,
      "ĠPeter": 9156,
      "Rep": 9157,
      "uler": 9158,
      "Ġnerve": 9159,
      "Ġnotion": 9160,
      "Ġfractional": 9161,
      "Ġsurveillance": 9162,
      "Ġcorrectional": 9163,
      "Ġtown": 9164,
      "Ġbail": 9165,
      "ional": 9166,
      "Ġmodify": 9167,
      "ĠEven": 9168,
      "Ġoffers": 9169,
      "Ġsaturation": 9170,
      "rosis": 9171,
      "ĠApplic": 9172,
      "ĠFinal": 9173,
      "Ġmodern": 9174,
      "Ġvice": 9175,
      "Ġseverity": 9176,
      "rimination": 9177,
      "itzer": 9178,
      "ĠDue": 9179,
      "Ġcorrespondence": 9180,
      "Ġdisplacement": 9181,
      "Ġrepuls": 9182,
      "necessary": 9183,
      "Ġdisciplinary": 9184,
      "Ġmaintenance": 9185,
      "ĠAR": 9186,
      "309": 9187,
      "Ġdeclaratory": 9188,
      "side": 9189,
      "Ġoh": 9190,
      "Ġreligion": 9191,
      "Ġtwenty": 9192,
      "Ġinspection": 9193,
      "stra": 9194,
      "nger": 9195,
      "DW": 9196,
      "Ġclosure": 9197,
      "Ġcompanies": 9198,
      "Ġsynthesis": 9199,
      "ĠIslam": 9200,
      "Ġguilty": 9201,
      "Ġexclusion": 9202,
      "ĠTelephone": 9203,
      "Ġgang": 9204,
      "________________________________": 9205,
      "ĠREPORT": 9206,
      "ĠDevelop": 9207,
      "Ġcompetition": 9208,
      "Ġsuppress": 9209,
      "Ġdeaths": 9210,
      "urse": 9211,
      "Ġdeliver": 9212,
[...]
